{"vocab": ["\n", " ", ".", "?", ":", "a", "b", "c", "d", "e", "f", "g", "h", "i", "j", "k", "l", "m", "n", "o", "p", "q", "r", "s", "t", "u", "v", "w", "x", "y", "z"], "K": 26, "dims": {"V": 31, "d": 8, "H": 96, "K": 26}, "param_order": ["E", "W1", "b1", "W2", "b2"], "shapes": {"E": [31, 8], "W1": [208, 96], "b1": [96], "W2": [96, 31], "b2": [31]}, "weights_b64": "LqDtHkwdGiEfI2GcOh1Sn4++L7y0vEi84cGcux286rvxuk+6LD8HQeA7ZkS9MWM6Gz0UOTG1kjpQPvtAVLxAtBitVDTeLrAxO7UmrEY2+Tk0vp4+tDzHPXq7ELGCQfM/z0AbsrQ3671jueo4cMBnJnQwujsuuaS987vZwgI+rMDJPES4YDypPL1AMcM+PGU7JzvktAJAgcGkLsQ0Dr6hP1S0wLXYMFK6lb3fOANA9zZHualACzSpOEMthMBeOpNBQT/vvG2+w8DHOzI9djLOvi1BnL8sPEM9wML4uHomYDpLtRQxjDGBwNlAV7x/OhZAJD4KQXm96L12wBG+6ZXVOau8kcH5wa0xdjwFPC2pB0D8Pk89E7/rPQCuXT/VO5s4wjwzPjm/fjyItE9AosH0PMS41rquQCW6+jf2vd04NMRFvOe/Ib1oOSNAHDyDPUnAlzpXN0U4GiZVN+8x6DTfrLq+HEMVwp/AKD+EwIk3/jYeNJE/GzxnP8879rp9xKC7+EIWN7O8eDwPuZa8tzhRNWC/dzvOtjkwqrH6lm44X7glwOdCqrhmOvoopEBAvUq+ALgFwd29r0DhPofDb8DkNxg6szwrNP6y97LxtKG5Trs0QGE8artFvO+7hbp6wWswMDmIsdY207MLO2AuHbIbPdGwAKxlNNU0GbWVsn06r7f7Mhws7bASN92u+zDUNQsmuCxVtUu22jl3tsCwRi0gN++zvyOttKAtVzErM+i4fixLLnWyWjFTMBC0UDh/qMevYC4oKfQ1Ba2JMzctlqgMst20Sa8osjoxs6r/poM0SbhesT6l8DU/J9GliS4pOJopQS2HKVqw5a74oJAwnqnrrS4z3aY0plkvNi8zNpY4djR+NOIg9rDRsrebrDAwMiiq4rLXMmw59zdsmOW3zjy5M/i2Y7Z3phqxXDLmKYK5QC2rMLyu7TXgMPks5TIMIhI0vK7/oNgvqTKGtqoxVq0LJL8yxTEmMnsf/zIFNu+3Xy8qMEi0ACQeLkMtJrgBvLYy4DC/IFctT6wqNoowVbIhMY20GrJ1tKS0iTnXtAgzezQcs+urey+CN9KwyaHoOHQ1fTkDMQEp3jEKNqyoo7cbqZU196nRNg+kRLCdqY0w6zKhL3oq4LSnMC6sCbCVnW05BC4gs0S53Cj2Eliq2rSCMEuugzpTNd8n8S3tMUW3R7KAMV00aquQpEkm+SzTMVUfuiqGMpSxKLiFseaZlzVdLIs0lTX2NTQx+7HGrg83CLAGLrSxf7l3NWmq6TQIuekw1bbMMImkM7YMLlOwLzTFsl0xwagxJBKx/bafOLKxci2Gqgeyx62dqWItNq2ntAiu+a5QLf8zmLVOKP6sqzJJMxytRbVXMma46S9BMl0zcqwFtqytm7RIuuktUbpENJy39yo0tbO1sDZEL7M4MDLZsqC0zjVxpze0ZbZvpT+7p7SPJ2S2yiwONo2uzLcXJeOlUrM3Nnso4aVEOT20lzYztMG0ci2Rs9804qcCrMI6rrT0N4KxCDEqrQiqujkdsi43R7Rysee2eCxiqYSp36/esieiQDT0NxY2drTKLcu4kbklNyA0XrOdrZeSyTOvo6A2TDB4mgqzDK0LNGOwUqxht9u0LajgNQIyTKqVNPu4MzOAuHOzsjS2OK8vuCsqIpQ3AS0NMH+0jLa2qP81DLeoslizIisMMz038ysHLTQ4OjKOtNMz/rM8sF0y46XYNBKwEaClseMvU6m7OG2xYLUYtRCuezHcshYy3q6csh6rAq0OtnQojDACrjYx064/pXsnTDhVteO1RTe6r3WwNKGKN3i0+TL4sI81ArUZMTwzoDdBsAq3ebBGs3GmQashMC4wCy61Nz22RqhpMCQzzK4CtQIqlDEVM9q3m5uhOwW16TM7uRw1MKucNFgyIjF6s441XzACtEc77rXosGatrrUCJbEx6681umEeKzBSs7u4oTCQLBGzWC7DNHGr+K/xs865tbJHqNGxLbGCt36wHDNSOEOmPrhNphYy1TF3Mwm0RjA+L6s42a0BJeaumTRVrqC3U7FONgo1tjCju10rnLMmG9iux7ZptTk0SqBcqwmvWjZbNaG0YjOksvCzM7lZNdGkkbWptiMuEqxWqyIyXS0mOMEumjYUsfst0at7oZSw4rNCtmsw3zBjtQEz2qmKtb8zLy4OuDwszjQzsm85fLa5urEw5jbPNEy0DyjAo6W4djA+q7avCimQNpKoKLCsqZw0ziysHI838Cz7sz8y7DKuNAkvCKAlLz4t2zBrNRI4CTZSJEg0Tbe1NXquHLT9spo1ui19Mps1mC/hq5AuoLY/I4gsbrWesHizhzCPNUUx7LNGsRM5uy6zJK2ybasqtGQ1BjTuNO2qFqRZt5i1Jq7KNEq6tbKENl6x67IvNlqthKm2NVyx8yjuuN44HyRnrpGwU6yisO8yvC4Jtpe0cLEdpomye7ZbJK4oEzRSr8uyCjcNsUMwMjDmMWaxPzGrswyxbKlspdsltTMnLiKi/DNpLC84ITR9LS8y/rTDr4q3zzGeMmwx2ikTMjCy1K1vrp81rrJyr4i4d678txI1STJ5Ngwe8TASNaqqQbAZuWY0MDelryO0qbYFplGulzKZKfQyzTTyq6ivJa96tNAvY6x1tzmvkrQjta+wxLQSNVytsbBpLbmsJS4WMHs21DKftco2AZ94sPS1Ri79rf4zNbnGrJGg5jBgNs0zNKBRLQC4B7NaqZUqcxcJqaGwPbLhsIUxkax3rR6z+zYxqDm1mjaONwE4eCG0L16yla9Vs8+yPiykMmQxgLPbMcA0KJ27sW80WzN4rzEyK7W+KQs1LK0AJWs0xbUyNhi4mbcTL2quarUPNAu496R+MpS1by1sNAiv0zHTtaq3aK5xKW6s9S+9rEAyIDMUNQ8qWDTstlg1CDSWsNc0Q7TDJ+E1ojSGMBC266/gtTuxjDShr9q0NSjnsLku7DertlYb+jehsMcxHi0zpJKwLjWxrKktEKrTNw+2JbV+nrqkPTVTNy82Ficfr1O0XCsQsnAyFLPHtdczCqoxpnqh+7JzsEutLjCULrSw2LObMEE3CjFDM2unSDI3NhU0hLZRsNas/za/sHaoFzi6tI412jSGqRY1sLKMs/urOy5erQcyALEwM7+zY6dmLzo2RzCHqn218ijVKbG0zrUnseWs5S6WqwE006xDLyqH965Oozyx1q7bkom0+yWQK2aoMzdcrl+yADM7NI0ZJThFNEAzI6vUNjy1IDJdHb6fgTHwsHwpma8NMTa1g7QHqUIvRjL/rlUyLjD6HSIx5a60Lkq1trSEskCs3KqgOIUwYh8+svW0CbZYtag03jS0rJW0kKjktQcrdCS7M6+0cbDGM38kxSs6sfAsxLUpsXAyfStZNUA3uDc5sZSj5y/msgMxHDNwq/2xKTAiKdWfi7ZfMm0yjTR1Mj23dbKHo3QaRCiTNAqzIC4gpXAryreRLN6quLQrLxOO3bTzL1Czm6nisws04a/bI3MnyjGBq70wXLQlLJwz3riEKdW1CjQpNNqxWbQ5K9Sx6TFxr44vpbLdsLo0+LMwqyy0oDWZsymiUTU0tNeu4LK+FnsuRLP/MSy0nDCbtKYscLEssIS3RjJINX4xLqSMricmTq7EpAYwqK1xs3W1C7OKNpWv+qsUKe62WDT8N4iwKyKHL400VzaiucKwyzDbrmskvzTtLAWnZy4DNpG1dziutP6wHzUqGY0uhzVfszktLLdyJZcveSp7LJGnxbAOoL8rNqrRNHGoHrQVsgKzvLQGNM0x6i7wJaQstbBJLrOsbrQAtEo50LUprkYz86xXrJuwYzXQskGyOyy8pMI1gTd4uFSyzzKeMeol9KqRqaQ1pzBQj9umJaBEqM6vsTFyIee0izBVLM8xDKe3tQOsSDRmMkkwDiebLOkzIjVaL2egwbGUtI216zQYMq4thS5cq8Mw8C0iMNG156y5NWArNTSar7KoBTMXsl01fbBktBu0kjJvtBCyMq74M3ynaq/+o0eyc7EzssqvHDI7MAyxi7OitWWtlDA6MkGxALMJKRMuPCwBsp80cjijNbEwgS5UsIYt2K8kMX62ATNhpoSlpCv0JSYmWCdKsjapD69pLKe1ZDF1HgE1dDSisbowbycANHE39TRmtjW1CKoSrDUumyVRppaxOaj7Lym0KDMwtaIs2zPxOHWtTqyeJ5MtoqqFsjinw66Utf0pRSqHsIylY7RzMsksViv3OOYyqyRZuLyuFrEEsrEu97jtp6MuMrNSryIkoDAPNBszBqz6sPuurCHZM0Isfi5gMuG1TDVAMHuzFjN8rJUz7a0Ytrsy6LGeKsc0tDOYLCkohzhurUUyrS8LN4evIa1EsQawpTBUsQcRObE7rDyvcDBdNEGxMi4FtiIw065COGWgX7SUrwC1YrUCLqWsJa/0tqAuFrC2MYC1Ai8IoDgz1LEmmlowH7Mes60quDBAsZExmCyiMUMuYTT3snwlDD2QLPCxDDQUKgey5K0vqJwxsbA8IEMrO6fqpBCpXicSpuocbymdLbw1pTgxN3Yx+iTernYv0rBZMQCx/7RMtHozkrBSsoizDqhrNFisXrDdtGI1grBSrVQyNCueM/ksUqrJqm20Kq/bM7U4crbBONko1Cz4MasqdjW0rS+gdTETMd4zxzJ/NB8gvqPuMBmpyTC6tfE1mrBwJNe51rD4r9QvIarrs+ww2DHHrHm0DqUzrgk0hTEdLMmw2rgQshAwRLCHMPq0JbW5s0M1yTQqMa60s7ESqnevMjOqMAUxazErsj214aIXLvkwhrJisZsxfTRTrzytU67FNHy0SS6gKeKvH7FurWS18TEyrD6dPayIrx002rElq700cTOnsL6vz7PMMjEwxizjt1M28zQ6sjikaKxas+8uOC4ZLHEspDSeHg8zxKqOst8ypjSCMTSwKLFGMM4zbDEcrlYsqKE3sxUzkLPIsFyxAjVzM3QzjK3/Lz+0eSGatYqwxym0qX+0DjRksAgzRSozMPy4cLVaLB242qyaquow2rFWsZspECuqMkQrrDS+s0e1si+RJKauICEjuA4yHSpvs9sluK8aNq4y3Sllr60h/ScPtMEyVayjpSqrN6BzsYwtHi6IMvyqlzjur/6slzJCsoo1g7D1qG8xE7fztau0PrG6rRIyVi1nKCUrCTHzs7iy161ZuIgyrDAOsEkwIjBRKqswwJzTtPsuRzGNMH2wHrbwKCKovjEHs5O3xShxs9MkcbazNcatHbh5rOkiX5qBKeewOiyZqmseBDFIJv8sOTSFMUa1+qrxttksSi1ZqIOm/7IiOMcwI7b5Mwi1TLOTsJcuYqIBKgerEzMnrJowgqxIMOKqtDCastAqrKQErIOyw7Ewr5+xkzJLsh6yWawqtFax4ar7NWQ1mDJisEi2C7G9LLo0PbdhMKQmHLATNPwyJDZSrFkyDjAisf60QDWWM5WseLCFMf0xsC1VJPSuCzNXqKCp6zUrs/Eu47BMtGWXpbU2Mwa4hrAor2+zebeEJywvwrAStoQ02iC8MbwvKrJnLHAwHSTJqX41Aq3VtM6u2KSzsh2sRKVXOL2vyLdytVcvtS08LGssQrZgMaYrBzHyJxYwLy0CsWS2dLIYrisz3KiJG3qmYapBNrk2ea5+qCG1SLF8tUw22TdpqO8wWzYGJEuu6DAiqR8r9izDq4wumjUctGksmC6hLSYz8jTvpZ+y4TOargQxIrRXLnawT7HKqgI4g7HqL0AoDbBTMS+2padhtYo1D7Y6MRwyQjgONSm1pbLWojE0uatEpJenUjQos8el8LEQNHS08zTOrIIrezcBLjiuBqv5pw2xHTRjsQE09LQaL90yyrMmKYw1MzIzKnkr4aw5KAEpHirqKFUsyjD1tKaswLGiLT4eZzRWJ0oi9LdatbI36zVIsoGxM7LEsSqs9C9JqEopWikmq/Y19DQ9MMgx/qm8NLQwwSi5LQo4jLS9MBqs5zPRMK2wkiHtrhQw6zgdNKItFjFPN1csQjbcMgm1mjQxNTy0pafBKRswm7RQsBqnRSaKqQ0t6iBpqiiltDQ8MU2uSTGKJku2t7PLtT+sh7avMy0fWzDDrZe2nTAWqC8zPzgtLaKxQbNQMw0xIC48tgKvRLUlrBssuDCHMZezILNhtKYkQJKLrTmOUzQurVopyp0ssYEyaJyhKEwxN7IsrDWsTLH2KWuvsyiTrqysvjRDMFmxVzXtKKczoTBWMGMsFqp3NBarqyzVtNa1LbBssZKwQDRatPS4cawLqIC4IbKiHDOuoRrJrFWppbjvqR0w/rTYM6ovKanPMt8tmSxfMA8qRKg8ty2xSyxKsLy1HaxKMGkwQzM+LdG02ag0sGgtSLD+rFg0WrA2r2Cxsa+LMfsruqmwrk2sA7cBpfUbFbBZLs4sX69KLjyyuDVXsn6oabSNtgUtxzM9OAGx7qeuoiKwLjj0r6cmzDZtoNGrxCyVqi03+rK4IFkg2C90rn01la5JNtQue6xHMM+zqi3fJlk0zy6vKSywDqotMzIyu7DeNPEwSKbuq+svHrKTljKrgqaTNEKz0q/AsNwhRTOtreCt7SAssIYsBDRHtzai5iwuNB8xmaURNaOyWS5drV2t6pPrL16jSa/cGb02PDiBMha4Tq5mMpIwWaiQuBq2BSoWta40d6idNAozZqtqObIpx7IfNAOstaTOqUCZA7SbMBG0ArHzL4O4wad3tnWzTi0PKde02S7AMGwy3DIdrg01r7WhtE+mybAfNNgrBbXhpRCxTBwlMUa59DCoLMG2ULV4pYA0RbWOpoWuoapIp8CtHrixOHcygqlVqzAwU7WUtEo2nTgXtVQpZqp+tY24DDeQsFkyETjVtIEsULSStacyzK3BI7iu+C7ct1+rEKvMNsWxQDG2tcS0qqzar/svJLdssRsqxDSrtSG0CKh0pdEv3LJaLew39DElLgGobbD2MPUycSk3rXAxqDDXsKo0TDI/Ms2wt7hIsvIznbT+tj80Oaklqzi1BK7Gq1yo6zR9qlitADMdNGu0GLYAMpKyETF7snmxKzEEM5Uw5CV3Lf6qWywMI/IzWDQTnIms+Sj8LI0xUrTrNwOyRq9CtsGyhjVPsvGwAKi1K8i4KSoRsQuwwbU1pvqpnzAUtd4zYjQCMzS0b7cMsDwxJ7TJNhit7rQIrmowuLErN/8uK69MNH8vzjSuKri0ZrZHLYcljDIPNOaxwLKiLimso7EQKFUzzyRqreC017OHs0swv6hnOGYt7jcuMAaoSDABMjqlEq/QKDIr1ijctOmtarPZLfgyNTpRMIQrVDHmNdmzcTTlsAC1bqgwKGEwVC38K+K1GLILLWS0aDIUpYwwbqTesII4ji+bMOYlEK3yKxQzSaBjoGw0QK2RIoEwCCs0uC20FzbrpOix5bf2qbivUQ2bMSsfRrITnO+vfqzqpEIueDI+s7IgyDKvIhIysKy5qn23FTGDLbq2FzZfsM4v/KXYqKWovbGGMUKmArGFLzc3lrQmssgqZDaOseUu/a22LVIzG7U/sMAwEzV1MYesza01N8K39ytLsRy2wbG2szuxDbE/KOY1lCz+sB6aTLWmuJM0oq+6J0e2iS3kMVIoXyMFLB+v1yurKVIkmK+3L06ui7G2qRCwHiozLkw0OKgiMoM1J7UNKJw4fjVaLpGwADJ6rK44SyyTszewGTEmKmwua7JTMXYvKDXHrk2kmTICtUyvwrBMNPYzJDBoNp6k1DJvKnayrLA1NT8z3DC2sAqtejdtOmM0tjGZMSUsMq44s9KvfrNaJEQ5y6k3N2Q1eqffrV8tqCvjKWwoRyvNLAa2rak/qlqsWbXktFm0vTAlK9usRLTYppgutDAFMZApg64uMM6xwzDuLDEw3rXVsVMq4S8XMHwnzK5XMY22syQMLwYwNzW8slMoiDi4rh44Ci/RsRmqHzJJtvQvP63lrM0rXTAQtlcsiLj9rRSwCrPgrvscUbKUMi2zZy4MsyqwzS7ZL9mzWaWZsBkmTy3hN8OwJK0jqmS1W7OfNLEzsaxsMTwvmTImN3Q1XRgmsFizpSV0JpGvtaucroKgf7JpNGK2aDSyMBMnU6lwMBgtjzF/p82s2KqTIxcu6LUXrHExpDicuN8yErRUs80xLzAYMGC5Yar2Mviurq+Bq/m16a31IAEn8Cnrs06rvSlJqpm1KjH8NHu03S5lrlSwvTJgNRY30iyVsLknajH6qv01ACsEsrMwPTYRsCI1xDHOqHO1GjBbsQc1qKx9LEqwajKPsRWy5DVyuEm0/pmrKI6s6i9Ks+kyFSmEtKQ3U7OEMlm0wCsXMIazErSWLl2v8SMFtC8zcrSwNFwuwTRxNKKx5CsNs9ctrTHGrSwqUbRiNwW0QbHssU8zQ7kZK1GkGLIfOmwYpbJdMrCx+LYVL4S3qS+CMp+wW7OsM4u2ba6AsEAtbbabNhqs0DdysvaoZi/5MbetnS9PMIuuaihFnHi3QDM3tTEwYq14LQqvxajtLFadCrcsMV0qHa58sQO21jOmNcy0ezQGq7KwOTT3tBmk+bBzsRw2ITL+Mk4xoy5ONvWv76ioHHMkATYqL1e1OTb6JJKypKzmstwlP68YLCgkOrLatcMypLFSMo2yAC/9sq+ygbBfLU23+LdUNHIwlrDNlwo0uytHsH8shLTLrD4rPTHAsgcnpbFjMD0v5TBvNeKskjS/KZ2q+LDysiSd0i/OLNQwz7EDsgcsALnCsjwyKzUSJbY2vykDsHE0+ak4MJ6oPTFoqCkjWjCxLlqwnq37LTQ28jXstE02mSt6rZ+kMzPpsOy1B6vDMGkv3K7KhlEoVSh9tDuxlzvgrh+pxiF8Now0iLTytJy2IbQCsb22uSkcLFgr0TIcOZSoJDDfr121YzArt0e1TJUatZI02rF/NgMtdLAlMBo35ixCNnA0hyC3rPe00bWdr8EuSCnirhG0KaNcqRy4lKwINDmw5yT1MlczOp0kujA0pTXPMOg5V6mQM8mswC4wMiAtFTTiL0C0067aNaQtJKLZNDGwOSw/Njkrt5k2NMwqM7MELnu0Ap0lqnux5jLor1cxXzJFtbwyjbWNKwixii/zqBccQyegMWA2TqirLoCw7yFxM52qzzAiuNq0fLDJMZk2P7PsrQUsUba7Lf2t7C6zL70yBq/sqUswDKwGMNsv/rM1KAm02rQusdIl3jXis2KojCUprUE3DKuRqDay4aigM343UbT6rMut664sNewmCTbNtPI1d61uJospyqySrxwfEjUmNC22ojXKsSOgRTQeJ6oyLzWtt/O3/qRRtBMiJS/VtJ2zoCxEsGklwC2+Kokzz6vnJrKxgrCTsM4tbzbPqZolgy92Mbk0+rD5L+Up/TSAq4mu+jRtMrGxE7EdtxA5kKwaqo6n2arCtIUmQbeHMYy0YDT9tXygmTBCs20qLbVDLA2s17LVsO8xwjZppCwxnLYntlos67AmNS0tWqQwslg3rrBKMBm4h7OeNDUyWyyrsHUsBLGosvatgCs6sny3oDAJK/uspi1toVArhLPLpEUoY7TnMbs3bDSftNOyG7RjMa+oKzTcqAStczBdMKKwBDLesDonbLNxtNo1tqe0rN0zGDE9tEoyjzGPruUv4K0fsqGw6yMmNQsqv62BOKm2s7B3LrK1PTq2KS02B7P2MGg5MTVFM9K0CLE6OLsw6C5dNJywQjVfM1Sq0rKfnr+tgrh0qRo1VzLgrK4pWC1htMA1kS39nh4xNTVPMEm017M7OEwzujFDqEqxPTGirB6yVzXHrrG15zJGLQGoXa0gMGiqdrX7LGOxXjOGIWg3lbECNUqvH6sAKjE2GCpwras0q67JMZw4Ny2HMkEuETIeq7SwebbTJSc2kzMHMLknQB0Lths0DLK4sQWyyK27smIw0TDso2+pbTUWsoa3KDLQsRK1YS5QsPOnE6thrd+tdaO4LG4sK7WINWi0UjJfNQ0xNDUDICKZTa3jMFkkvLUJONCpyC79rBM0RrjtLPSyeC8rrmwsA7HuOD8vcbEpMI0wqbPdLVcw37ICLJaxfiumtBmoAbD5NFK2cahtN2g0brcpMd0tIbUSOc0vkLIYNmozPLEIuMI2fzSlKDQwqKwOoE2zcCxYNhqx1ytoNbI34CWbMvCoPSiiMlKudLE8LB2vJqijMtgoSSzfthmtwzYmtIK1mCfissawSC5JrIoo77NVNfqqzTANssC0CjCytPYneDFAJQYpTbQArRa3wrAptgg1NDTCszajzbF7NZiyiLB/KqC4s7T6njIy7jDPrxi0S7SNMO02oq5tscCxazYvMHawkzGNKf4zvjUONySuzDXmtOyuPLFqJPUxobJ8rRURzDAxJFm1CjGLMD+weqYtNgssuR0EMIYtGx0AmWOsvav+s7U1YjD7JWU1H604q9cvqTXdMimnnijgMcCyG7a7sogxuSiPsvEyajPSql23ajBOrtA1rDDIMp01QLAAMoyxLyuztgmxSTQ1rT20eCkLNqs0qKbjtBkxITOTJDitYaz+sVwxE7H7rFixA7OQMV+w86k9K1OnnSe3oyYpZqkjoOUxch8gsTEqRyRhNXou2DWXDBGnajJTNGuhrDXPtUAmRa8jOBiwb6zLsLSzlLBEMpsruqv2McOvy6xtsUA0DjM6M8UtU7OLL6YqdbFgMaQuIjK4KmiuMDg3JHashLVxMH80/rX/Jgc0Eq2vsBYlFS35MfQvj7hbMmS1fKs9Ml24KDYzMCQsoqzOtFk1QjCKsCgx0C6Ur4W10zGerpOyRihTKVauHyVNtcInR7ZGMJ2w2q/Dq9mzIDRLm6+nBLUUrwYnUDHUMGE2ZaRMKOCoB7QWrUi1ZrRlsdm1eq9hLx4vwbBYLDumgDRxsTQvtLnGsCGw1SxntNCwlDGCMCUsfjHnIZs0FzjvLqEP5y91M5I2frcOL7QyqpvZKQayeSp4s+CmFzPAqScpSC+PMaArcCl2q0cyCa/srKuxRq6UOIS277FKs6Y446/HsWso/y4WL2Co4LTYL0Oy6bapsgyklCjyMKMjoy8trpW0sSgaL/u0WrKqtJgz/LLWMUQvsrOXrJyzUiUquBK4v5/LLkm2RrbEtMGjLa06NW+y0jCgsdiofDGWKEKzSrEJNQEaDTEat3uuKrQ6rpCwLDdQrPQzGa2ZNT41k7OZMbIxoSxXNNmvDDCGLvMsfLDWLNO0ZLBvsHG3xKtZM5W0qDQuqh40XawNJUCtAKVGqJgve7Cish8iXhc2LsQ3ECkXsmw1RLczsV4mjziZsR+xgLQrNlSvsLMXM1k2ODXvM803vDANsV0xc6wmpPYp5qhMsNysPLJKtdSp8rShr3C1LbQwqU4qJ7Mkse+0cjGUrc211yuYNEW0Fy4ds/0wuDZutlI0xjGcNHenYLBqNZyopjZrLRwthi2ntC21JLC2pcQvUy64toa0ETZNqCE2tbSStxyxtS7oKDG0h5lbMYg01K1jry+yg7VQqj6uzDFVLMc5ezNCtOow/K8eMsQsSDYgNnm0/Ld0pOEv8LH1ssSxfrONNPGsjzTFspE1fjR2LdE4sTDxsYKlXbWDNHSuWq8Bm3YsZSzhMq0z7K5/pWYukjGUsYmurablM1q0aTELNfQx9bAQM+muTjGmqEIwdrkYJ5wzSSxRoFi0bzIYLIg0YDbhLR00WiRqNxIxnyfdNIe0V7EtsBO1rrZorkQrzDV+tBc1tDAAKzauDzCrssAdr69zNOmqxKg0MoWymjZuLA8xW7GqroovMTcXq0Y1AjYQJjExc7WANMatVbGvMjUjiDQqMG4hVjW9J2kxFzVIrlCzRC+ksnKmHKdAMDirGriPNPEuT6mSs2Kwlbhnrc6yfDVvN9epeS2KK2mrv7DTJAsrZLGwMuWwHrOELsey5iwbtiamdDfxtKUsH6rcNCCwELCxLNoxdbXrKZUoDjY6LLwqN7GJNN2v5q8DsD60ZKwVMBqxVKujtIozXiREM8OtK6S7Nig2uTaMrC41fiApuOymBTQtH6CsabHJrhmouS/zt+SvGazLMla2mi/YL6q2xLevuF4uCbXtrcu2vLejMAOyfbSkuQWxyCmgMl83m7WfNaYwtq4WMuIwX56HtSC5wzZNM9Wcrq1Ss9gt3qw2tESyb7S9NEMtabPJNQuxRLEzKouosyQzMwUpabPkrBMrELQlK1M4t7MFH+0wcDXbreoqWitLpZywbiNyKUkuCCMQrEEsQrLcraQ1+S/yrNGsrCFxqXUx+CklsLKuoSx0Nj+sqa7Ts3M4rrRcs7G0RaGOK6YhVzGxMJwqk7ZPMcitwTQLrSMtMafiMWcs4S6ANVMug7CwpZeyFa8bKRKsxbBtsaEmJbWXrWy00ifmrPkrOSdtsAsqiRYiOIYsIzHDrTQ0BbZ1Mf6wMrHyMJQtsjBgMR6zWS2ptEIkh6tOpwWzqa9Xqyc5tSelKLUwljTEpVo0kS8wrBQukK6EK7O44zG8rjEwCSRytjsswjB+s6ElgbRnsVM0orEAsvwq7pp8Ma6xvjJdnoGwcDLAqkysbStENjipaS1dtSytyq8brAo18C+ytwU21i7+NJA39LBZLa0vNjh9sI4nFK4Asaiuj7XmM3ssYqjTsKEtBqyoMbK4ibCaspy0vDTfNBYtPzdPL0IxTDIfs62qDCAjtzi1IDTCK+SvHTJCJAS1MzLwLHOtkKoPJzGbICprMwMxmTItuNWu866hsVEthrQIuFqsHDjDuBiyoq+NsKUs2TLrtD4wAzQ+ONcmJaoEMHYwEbegreKy9iGltOQn7S/zr8Gz9a73sM8rAKoDsDW0kKkQNFeuk7QfOBIsprLHKqc4HK+xpdO2DrADtWY0YK+dMW+tiy4IM/cwaCyTHx8uNrOlMhKvaK8DMwSw0idprCctjS37rnQwT66nHRen7bI1rJitpjBTq+mweC6asc6sPy7tp/CzoDBfMMQwezH+rLmlSa2LsKUx261Vt2uwpLBZsl8txbb6rgioOy7mq+632bEfrfqrwjeHtoC0khiZseAwpClPHtEpDDM9taGxfK6qLAox6bCatWQ08bQjtGG0KLF1trS1wjCRMlyoHDZ7scMz9LFhpme46rYBrUe2i7nVNJ4yGS8gtRGo7ayaNfY1CjJGrcO0Gyzemb2zZi4NsEU06bXXMHilbCU3LR62P6g4rLyz9zCcrAczzq+aK5MmoqICM1Yo+KbVJVg0NKglNFst+KzoLpUqzC2StVwmyac3pa0uQrj5so43XLZ2pwOlwzWzLQMyBjQ5sNM2cjE1tFOu/bbqMhkxIzbut7+wGTRgL7Eq+6i+M0a2/C+QrRcw1zZELeQnD7Cqt+olvS4FNCoq8yewNPCxjbHmtgExBi0DoLEqRy1Jr3woVS53M+agUSO6NFWxUa0MsXksrDFMNSG0PrTGMEyyo7FTLLGZcbC3sa6xXS8zsD41eLVZsWeyZa0wsBEyIK91q6Iw+DBwNQ6wkCBNMSU0HixJsHE1bzLqMaEwNzHmMcKwty8KNzA0xzBgNPI05rT2rCA0sivZsZYsdZeXL5g0uy8mtXysmrIWsYIs269LnfG2JLYRMscxj7QmLTGswDEitSeocDQ0sAIxITgLNImzJrXTrEK1BiRwL3MwELT6K+msDrGor1KtRSxYKP8rVTRxK1MxTzWsLGAzwK7FNYw3CapaskAxCjBuscUjbzInKyIr0bPwKcYfvS6WsXGtayzvltG1FiRBKCYwC7GvtPKx45E1trwysqwduA6os7P1rq0sPDWcIbYx1DdpJy24AygeI8+x3S5Usw0wV7UHql2ooKmINQk4gywILj62YDMhrdgtWqZEM+cw96bmLisu5LDXOBA0MzJmsk61AiqIsZgy4bFYLN2tsKxLNhUvx6sENBmwvjItMw+0rLLrsXW2SbAvuJgu87K0LA+xcy0coWCsSrZQrV+2YKQhuLWqabaMtWy2GDjoMUco8DXiqhGssTFvM7mspTflIpwodSKfuEY0FI8IuEKqfbGTp1ay/rRJMGke1ajbtBSvnTFhpzavoa4brtQ0CbTpLKe3JLHkMc2xbS87sE+zcC7GrLGmC6yZMMyyfihEtTK22LRmstcuBSjtLCywHqbNKAs0oTRnNB4yyLO9s7u3XanYMJKxcqVHrLW1ZzIEs3+0UjC6uGY4La84twWwZy90JLY1RbcftGwrCSx2qOAyvTNqt1worrCQKZG1O68RsbSv7a5UIEM0i7dFMDYskbUWM8YxGSshNe6u4ayiMeMx6Cm4sj6uBLZOsXUyCy+fqoao7DOgpN0yEK3upQw5D7JqNeeplDC+MVmw1jThKaAw7qPOMiGulTcsq6gwna6ptkguWCnoKWEy/DStLxWSjamCLsg0krlFsfAlxyorrQuwjakKsdstiqx1sCIUX6x9NdWz/DPVpQ6rUDQMqvqyby1ON/23jjb7pCg3H7lOrSuzdqtRMqm1ETQwrvCuZreetWewoDQVOEkzBC4Os2IuhLJ7sxs0YC5sLUosz7DZMqEzNiyZMfO0iLVGJ2i4ni2KKwCz+KKurt2dOi5zK0+42rCPMaa0Grbdsbc0wyqfNkS14iEVNag1BqUKstYuDjOvr86w5bMZswKwMLUxrQYdpDQqsDu1GbWMp8MrfDE/KB60+yYcrNU1sTGZMDYn1LMzqYI28bJyN3+p+TDLL6wsKbczMfy24TUqrWExZLTjM+Iz8KXJIA2lOzbzK7C0YKicMy40RavUtUY39aeJKVmkpjd2qD6wOLLSKngp8LWIL1+0b7FfslK0m7ZqtAi1IDSusRUxUTOOKmCz7ThqtV2wprNrsV2yvbg1JZQ3TC0ZMUo4LbbxqpQ1n7MBNdW0HK5erYK27LIKuP4x952EtvSqGTLQrX42rLVFsos2W7GjMNWw4CosLFKbwy/TMOsvlDUYMKkf0TBxNFMzfzLsMGO2ea8dL6qpKTW/Nc23dLWpNTUrFbPbqVO2JzA2LsOnRTUsI1CeWDWwtoYvzaUbMncwFSMMrsez7qSwspA0EzGoKvCyZbY8sYSszbOQLw6yIjWctFE4jrI5NLqzpabArosntrIxt1Ox0DFfLLUuprNYMfYweKfRseAfQbReqq22zzWcMCW0+STALZ2uUbCXL+unfR+Vrqqmg7Ekqxy0szB+LoguDCiFNY6y4yZgskkx9zEZLU+r7KvAM0a1Bq33tR+5SLCbNAwbuyq1sM6lQjKzNT6py7CXrmK4lbVJLpEzFKRDM7gWqpo4smUtHi2OsP05ITRpsn+R5bMeJAcyyzJ5Ly8sArGPsOyu3rYBOfa02LC1sfqyqzAUs+gxLCU1rC2ygC6ENf40VbPbpkkvPbelLoK1HSgvtoqoC7g3KgOrFrA5q2syTqkDtWgmAreHtaqvOqyyLum0srBWKfw10q7psrwlkLCBLNEvjS6FsxE0byLGNLExKKEBsskzDaH3NxM0d6L0tKw0VbJ7sxKvebCUNA6tcqzpJv80rTEKrBI1arQgL2w0mDCguB0rNTURpSSu/DRpr2UthTJmJfeo8q9KNR6yjiy6JwI4k7SwIDmcxDO4Il0wd7EtNSk4Hqg3LT+1vqIFsPyygzloNg004LN+In2y+LPvK0osISQOsgi0crVKMF+Zd7AiL0mwCLLgIuS1eLTTMcqy96sostMxgjTBLjMoU62hLLynGK2OrNs0cihnNdmy566brCIqHy8xMAc3szjpscs0ma2osk4yxjoYsas01ahaLygx1a4ks4QkCjbXNogw7S1uNMwn7ip4JUUxhrVbNX0zUDTENS4qJ7S2OAosbrGNMoet5TDlLSOz/K10tvy1FbFxMzOuwbU6NQwy8CnrMUQ4Hzb0moUyhrPgtSox7K5HNIuwKDGmrvEvA7P8LIesYDQTrK0sILjYJ7MvzK5np8g1byxUM5Mx064jNS80qDC9JgwvxTHzo4IybyeWrsY3tbfRsBkvr7jIOIghY6yQLFS1Ja+uMvkiL7Osskixq7LNsvas1zAXrMS1MCETsak2jThlJc60vqjULGI1Yx6JpTO0h65JuLIvQDY5HJwwCrEMr96y2jYxsn+wXa3Tsac1A692socu8jEBML4sf7KZNt+wVa/ZKiAyjbAxrKSbKBqboeQxsKirNqerRiSVrf0tJTN/qLQujjMmqXA0Vq+6NkYwY60RMBWyLbdIrw4uHTKTOIadvrKNMw2lnjOfM4yzYbIMs5MuIDcwuNC15LTUN96s4jLHLpI1mLIvLAq1JjJWLO2sh7E7Lqg0BDEINpOugjGONnWk1asyJ8izVTAZtdmzmpjcsPYpaTGarnqlSjL3tFez5bfZMEI1VSWgrFixVDIZrKAppjJiLPozXjANMIYu664fMRi0rDU4NSQzZzHnqWEebLYMIk+0zDAIOLMq6rQ5IM02YzabNCEqMjBCqa8xwC3etdIvyDjtsASwJTG4Hh4x5rWPrZa2I7FAJye0gzhopJcznjZML+oxxjL1MDsuQralMJszOBkYNcwgYbCfssq206ygMRe3VjRvKo4w3bKpNkE2zTUyItg1Pq9Pt6sxmDQ1OCUZUaIZuPowejest4aqM7PtqjC0nrlFKhs0ITQRrCisNjAAtWY38jG4NjU26LIHMGk1h6ydOPwx266gLfwnw7E7tYswF7bUNeevYqwOsAgsE7hEsvYyuzisKok1ODWvNIQy1zBfsZQxRKKRNGIxWTCvp22tVDFWsu00QbQ8JqW4f7UZsbkx/Zb2LZOxP7Y8s8C0ojCuN4KwSS5zrw0xizJ7MmKhNLT0sSEsXzMnMQowXrBBpfy0zzGZJN4oNqyNLXIx0LIiM1s2tbM3M+enWTRIL40t+DQBKnyl8zcatG843qrLNTg5Ha33I8C0FLBxKeGpxi7ZtKy3i7aAsp83xazDLVqsMyiaNye1sLLks/i0GrTZM5Ix1TTos0U2YCg/MVQxabWLNAsyl6mnKC04E7AbsZwzZ6WWMygZsaw/OPWv1rr7pZwt5LlJuE60DLdIJeG0LSQJnHazKzDdK4k5FDC9NEAzWKoMqZ2rFDeKMTS4Zq6ZtPiiUq3Vrko46rRnsOmbA7ILNIg1Zyp4oDWySrjqNc0wGLTxKgQ5dqp6sJgx5LHXLHUqxy2tJFa0ujTsMjAtcrCDuBmskDVIsIollDOBq2SsjacjtRgzaDVysEE3iLW2NxssPC7drvQxfbTUNLgxLCvlrTgz1idzLjO7oDLssEu2IbB7HcCqgzfJtcG2Mba3rRuony+YKP4yo7Xrs1G1Ayw5r+SzQbQ0r0M1LzIxsbi38rRCtB2wEzDUtNm3r6RPMGQt2qCusc0kx6AUrykwWLV7soWypzNZKPCnjLNNNIEycDM1qC6xWivlsUO2pyANtB00/S5zsS8iBKvytLWtz53jHDc2TC8mrgSvljjRMGSv+C4qNaCzMzZOJDk0Aq4ks0yuUDDkKkArOTT2M+G25LE/sj4Tva14NYitVrK3Mz8usZ3MN1c1gTIVMB+hfyvQMj456LTotKIy3TFeLbM2x7s9uLEwRq7jMAgw9K0OOV82XbOSrvmuIqg2nVi2A7AxtqIsZB4yruwxCC/LM4OshbTat7Su3DLNmN0wYy+nOTo2dim6LU2qhLCHMEC5tqlOsN80VDe+KbYuCqbetVuwJrXONLaszaSAMdAbd6+LrlMwgaOoOI6deqT3MECu8iQJuYEwWTlWtiqtyyL5tAy0BiZILCYn0zF8sbcfeLQXLwQzqSexNN60ZjXeNLQ0HCQZtYc0TrcgM6EobaxssX8tMqxqoOIwQy6WrC20XqperGmp5CgJsw4xaLOttW2pIaxmMr+vACEFM0Wv+DAsNPKvaTTVLu2hIrBnLfyvWa9BpGItxqttJUmzorL3tdC3CrJOLjy3wLIDtiytBquztpaj/bQDHwkwz7SzraAy2TRjL7SvhSQJNV61cS/FqroqTTSbMOGtqDkLNhMtnzjArnQzCK8qtNqf/rA9NmQ2ADEFLui54jUHMQcwz7H7t/gSxqwkG1W1jrcNNOq0hSDtMk20gjQ0sD40qzgnKCWsfqKzszCtKTbJNMSuBzA0MDGyArBRKOwqo6u3L16xFTREsvCztjPcNrou0rViL3Uo9rdkNd2oGrKYLPQ23CT+rpmuc7QnKUaeILb3MScsUzRiK9womrFZNVgjrjA9rx+3JjBCNb82yTj6tNS25a8RL48ssLbbtlAx2zUaMHKmrDEMLq+waDMrOKczsbQSMx+nXjRtNHwz9qV8sKmsC7SjNqKsNagQtGGpXjadrpeqei9GrUY2lTkjNPUiGp3BtNGzSrQZse+sQ7QIpCMy0DRkODWylLNkLuKeBTIlLtsxHCoTpa4x87JcMPMk3jXStDWnbrR+pcIqozOILpUu6DFosrCsDSF8MXMqVCkjK1k1ajA+MoMq1qRXKEoxdzflsvwkhLYstWeyXbU1uPA3FTXgKlSQGy6GMFgvzDLJG76zpqkeNJCsHDbZqTcvHLFWsBspMDQ+sYO3PCljo7GnOrLsMnM1eiwlt9aZoyB1quQyj608KUEzMjKktZO0WzAfMVWopLaHMui2drNSscypQTD9Ma2r+i2DqJgt5bQiK/WyzDLEM/CrXzC9rdIwg7LorXwyMDV3uJwt5jEkJ7sltrB8MJM3IavZsnM0ATFINLyhya3dtdEvjDNGLz8vIbmTL2IowTSwqdIyurZlKsSyQ6YyteY0LTYKtlAv4DPDmH8plTHnMfQtgzKdMHslPS+YMn+qJbW9Lha0iKwgLSQuVrQsOhu4hzGzNaysrbZRNgmvBzEPog61rrFuosygu7CsrykunapPMNm3R7e/szsuMalYNlWsNi1usaE3eqvloLew3qz4LOu0pbEsrzSxqLQ4tD+1ErRXJU03a7SCsIoptagkLGezBrRDNfuzra0aqbyyqS7ZMZCwHSzYraIdqiYSuLw1czGfKF+0/i+Itb22Ty7drN60cDGkrmUvDJoetuaz37BDLV828a84tsesNjJfNNK1RSxds2Ixla4eLYm1ETZFqkMxYzIdsrYyhbcJthW2FKudMxI3Y6lptM6vBbRKNbcv07KWNm0ptzjXNGOwXLHstd+3RTiFMwsxTDCxsX6scbEWp4wl8bXdMs0y8zCLtvAx0DB4sR81La81iPwwzabKL78y5zJVLC40VDVNtCq16bSNsi0p0a1fNZww67AVLko4NC3xMeWsIrE4tUiyFaxvONw0UiF3uD8zBLEpq3g2Wi2mMKg3wjNctOQqPqzjr0C0vTQZL/cbpTAOMCGmPbJeL4+3mjTUNHmtPa5Hn0EsH6ApNZU0nCx8OEO2fa3espEv9jjrsaw0Sisutku1OjJrMEIrazQXJ3Q1FzBbsTywvbQvKGsqLK3Ot6qxja8WsT8x+Kg9LZCwtTCKLeYzvLR/sGuojbFvrlOuWS8GOMs22CR2r4s0MjO6J/C0qieANAW0y685uQApjrBWsD0507RFn4E0uzh/ryO1/rPpsdW1abL5LM8swjRBMyOn87PfNlkzIzFyMno2qiZGLMgxPpyhLwewfjCuusm4vq1ApzIydTVhsC+3Lzfjql40bSqZtU6nyDEBtMQmWrjBrY4y57VAMxytsLiVLSy3TbemNi8vXbNhNI2l4y4bq4C3uqIltVGx4rlKFumxrjXhL9e2CrVENTuse6dMM+8sHSwis24zo6jeNlKsti82MgAsbzQgN+myqSxxKASqojOWrUMvMan1n1+or7UssJQxc6kfsX44Li00JN4t2jg0LAoxniKaKMO3gLTkspqvmTXpMd2qma3pJ9m1zbDPNOczSLeoNR+qjzS/LLQ04qfntYqw/zVGJGS2ZzAosjs1YrVjsHE1BTQss8Q0szS8sa6xirP3NPasEKzJLZquR6BtLiGwGiihKbgxrzRbtuo3cTNHo8eyLLcptayhmKEdtSk1AKkTq/yo5i9LsJwyVTPGrUyuQzKXK4UubbPyrKu18CgOMlA0ObApMtOpgDY8tmMqm6NDNZunZ7B6t56ZAy1vKB4gP7Q1tNo2hZk+rM+0KC1KsEewO7aVK1U3l7P3K7aorbjOr5myeikFrWgxHbCuNSo5Iyt6sQsxVTShpa+p8TXJL06w66wVNqysua+UK96jK7ZltrAtFbMSLp2uUqr2sF+ssTLCLby3tKxur8Oypq42Ki+6djlFp5YfVLJdMf20HiVkMpC1eCREJpE0+zWer1GwTLSwLrGrY7Aasi0wwCtsoUOwsrKWtJk4xrLJKWqtbjgaIiq3s7LXMjK3CTh3Jy0nbjSGKea5lK7Ps18zfLF4N3o1jjaGpRQuiDW+MjaqmjRStCuqujN5LogtPjSYs5Krga+vjZqz5bazqB84BDR9sQKoNa6gJZY4n7VRNTKuES1OM9KsfjSosdAtCzDSsHE6Y69LIfGrkbfnOYisH7KLsRax0jFbptOwDzK/q+izDbTpN022xLXJL9+xuDT6MOacTrBRNPw1my+tsMg2zLX2r9ar9zHQpQsxn6YBM3AsjC2ypPUnK6rmLYOptjTGttOr4bKlMrA3zC2rMA2zk6uHrgQszrALMROwmTgfJ1ak6jVENDogkSh7M8QeBTE6KKgwrbK6pli11rZuJBYlQzecMQCvKKhbNDQx9LEtNmMpMbCNIoWxhLLEsU2rcyTNNc2x/bJHNkemvjGDtUaxzTcBJeGzqrWjm7SrS7K1Mp2y1K6ssUwxJTIHuWitJDi7tOi2MbSAMXa1fKvNtkswASdinZM0si3DKL8urLOGrPGxnzNPm22uSDORtsyz6LZRtCQ4fLBQrdwj9507sVC2GivoNQOwCbTfsqoqgzEGNSq2pbZWNO0zfDFwtHSvLC1aNDIqKqWYqaAuhDASs0IugS9dMBQ4qaZ7NSy37K+oq3Q1TbSJOGatsLAHt8IyVyiItI40Y7Z5uLAxejUSOCQq4bT7syYmk7SINAMufLWyqYykMTNXNrGdwS4aqXEsxzSCsUWz9DNFLQmxQ7RZJS81CzixuUIwIbjmNg8t4SRKrgyvIjKftWcuMaXINOIuTy07L2c0A6G4NDE33jUvLKAqkjC4r1K0q7QlMD6wojCeroS19jV7NXanYjcInUKx1ziat4grW6clsL+yLDIXNF0y1DCNrO2zgzXCN7UnLrJKsH4zYKbpMSui3rD3rogt7qvfMMcqSzR2ojU0vaXLsvsz6i35thYxZbX8sFowbq/SGOoktLCxMN63SyS9tTE5CjQJsKE2p7QuMHGxi7jFtOG2OrDlM9m2BjUTsaE0N7LwNToxyzg7NBm0DbEDHUu2UjMIMYo1zLUQtP04KbCSNYI14q9qJs+yQ7hEMqS0LTiBL2a1I7DGNvC0wa7btNu1nS4IsmgyQTZir8y0YLMpt8K1Ki77NQCycq7gNrU0sy+mtXexeTBeoOYp1SUQLSK0PS4euOow1TQpOPIwvhrKMvMv0a90s5ewtJ6jMmCzrDHnLkAwhyrSMxo1zTYBssMZTDX5MH4vuTX+Mo2w9KcfJSqwWbUlNKAwkapur7ut8rCJN6ixsLLXtRMvQ7WMLJuxVTQHMi6v9rC/qDceZRjxMCu1Ha/6qmYyWi/4rjA2jjD5KfC4pbFvtbCyQji7MGk0JjNPNLIqxK9Is/GuVCYFJaezmi63seCzO7XArFw2nzDUMOW0DrCxKxgumateMT6oJS99MMavUzRetSOqoTcxOaa08S1lp6Cx+jNvLiy0xTUmru4ruK2FtiM4kLOJtf207K0/NJ0xP7JfLI41Y6/jqj2sDrSmNdO0bS4SuKu0X7Lptcyv46fYsEau5LSAMBa4FapHNI0y3Taxrf+tN7RtKue3ELWYtKgyFjR7Mo64lDboMDItHbKCOCWtL7SZNX4sNLWSrBAvYCmGrielHyoHsssuvy5zNZw306gqtxuq2bG0NFktOTKCNK8u8ShepwatRzO0tJeo6y45M2ku9rGqMBYpHTAlnlusx7OnNRGzsKukMjOy6bAiM1QnrBVmsJEzAYBJNWwwFzHSsa61qrAVMZ+w+SEtNbEpxKVMtEMzgDC0rfUuhy94NBi0rLl8ubQhEadhLii0aSx5slkxdbSxtR+w5qOHsEks1TkQNsgyrLMksCC1bKAPMScgN7KpM1UwCTMIql+yNzY0mu0x0awktD6gcLWFH9y0jy8fOVgoG6xgMxY1YrpxFio0AjBpNR8yYCkBMlmqWS0KtXmoWyhlL9+zozPTNTE1FDhtvJ2rMbjSNDo3OS++sno6kbEouO63QDQOMoWs6zFfLGw2trOGrfovOivFKOC3yavVsWKn07TWOgGu6ilvqdIskTLnrf82MjCaF/qzqbYYK50yubTkI7Gwyqy6rwy1IiHqMCwxfS92Nkg2RLE+IPG1LraIuI2wfq62NJEwD6qiOAeuXDDgI+YzMrQkN6SyFDCatBcxpbSMNUu1SrSFp+symZ07rdekVKhqNaAx8apRrUwjeaQ6qw4ksLQcsKgtiDOMKbI1qijxMlm1nCsjLY8uO7VnN+KvbzWdrvo0cri7NA4riqwutu+sfrB8LpEw+6kcOfWlW6gnMDezKCNjtBGvKzkONMs1OTZ5slw2zbHFNhs05TFVM9QwDDH8LJeuRa20K2uzwDhQp3wtkrRmNoGum7P1KA+w2S59r4y1IzU7L86kq7GEtCUyrTEJL30z9rfBts+02at3rSKrWTC/NPovNaSnqPa1ZzNuNfW3LzG4NN4taLihqUk2czc8LySx5DV1sW6sJTU5NhY0OaajNR2y4zQZr2WxlKztNbEy9y1/rM+0tjaDME0ruShnNf6xt6+frRozPbBvNii0vrFwr4Q2yy+dtWc2sicaLZc0KDPlrEcyuKXxLqk23aZhM3Gxhy+rrBAtXjZRKzKuKrcgJVOyArUpKJQvCCA0sCqzLjHksjW05y8KslStgDImtSi3mDT2sgmzZ6jrqkGw1jSvtqIxV7fxnO6jvTIWt2qvty7VsYOxV7MetYQw+bUCtEeZPCybsbgy/zNUtiG4EzIRKDCsdDB/NH4zbKx5MgMzxbADqPczfLhyM+U0p7fILBM2a7TYMmSoozP+LPcxpjdltbCwiTautZEvPLRSNHc1cjY9Lno0UK2MNJUbV6zCsZgtnbaVuXKt9DriuU21VrRFsRirRqxfslwwtbpELMGqKix0r0Au6rR/L965sBnWtr8zeTcmsoOygDQ2sX81D7B3tGgywB7kLV2o0h9Ctks3ATBqsPetdrOgN4UxijUdL5Cwn7F9txSzFDUhMiwy3DAntNmwIiDItZarNLCuJCUyd69Qsg20FDLTNQGpazTwKny4/TDptRsZ6i2DNHIz4zRBtm0q5iU9t2gybzMLsFu0tbgqpPQ1pjLytVixPDAFtdKvMDVaKwkzLy0SLYA0DzDSLdi2/7SRLK4y864YNCW0hzDdr3SzsrffNaq4OjKFqyKw4zT4Md809xlutWEtI7izMO+tD7DOMRY36jRQNv0o0qlVrWyzdrQVNVy16zFaNAi4LqJ2NrawEyVErR20eiJ7tjIwa7aFpgO3AbBrMxcxHShzKv81jKQdtok1PDMDM9Al9jW9NQ62q7LtKS60/qicpfexkLCoswulBbILKYcqP6xcr/ytYDWpMS8uZLRHrKqucjV+rOExqS2vFOusyrOWs4Uzmy7vsYA4/bMPJGE06zYWNOat2RyIIoaudCDUMBOuzjcitTkosbHoM38vCybJhHA0X6lPrRAsdqU9NZ40fLHlNCi2kimnrAUwp6zPNUegJzRpM/axSjIuMSUvuCvZsYEV3aHhlwoxULi/JhE1YrHarFwrejg/NKG0nqjnMTGxiDZsJI8qETEYuWe0ZLWHMGI176weMri0OLVgtGUk2LBqtFOuhzIfMIK2urCjrAk2eKBJsbG1xy98M+I2frEQNyEvKS5cqEOu/5kCtwqsSK4FsfExizSWNm82U6yJtzCqerRDLuI4PS81MZa4pK5jNWUvuqulMR6s46WbNYyv/LUnOES247KJNHufNyxeMjm1bKp3rYcrirXUuPgfECQKNjaw/rXENJ20rTAcDHmy6Le2tSYtly6ppDGwCjMnMBsyKrOnNMW2pbPfN4EcQTTlM2+uf64qFvOusqtuuE+tBDDHsE6yKjDRsag1tSt7p/SwQjHGN5C0JK9wODm0ATWnKm4tECGSNYIugKQMM0kw5ysBs5opjLMxsp6zFzUcNfMyTy1nsVcmJzDyOC+RqDobrLwxGzMvMrU1tjKhq0EtZjTwt3GhZLYIsyarsrYXuLS1RqmRJ0Ixoy0OMFG3y6/QsN43vDNSOB84TzX9m2Q1KLWoL1E6EjTMMveyXzWyrOc4Q652JPyptzh+tCeyTjMJOHAwRy1RJaK4hJRXMdktECIWLWSvhLUStSWxwi15Ndc0ezEBJFk1baYjqfGkV7NUOJqzMjYiKKewIDY1sOm3Pi9RL2G2NDQmKHqr8C0yraG1hDQ0N1K5cTMjMcwvuTVkpj4s1rJvLhswH7HhNFEx6jG1tMCneZtopbKvBbRfLw8oNxrjFsQ1ujSbrwYxFK4FONGxezbLtE+19DcLM9gmwLLwsFQ0MinstGupHqKEMz6RvrBVMbQykK/4MHWufDausWwzUyRqskWobTDDMuY077WQqTu0Niq3Kx830bCGqrsxiCocLjaxoSHvM380hLMCtCOwNLKktag3EzUmsIo0eC9RnYmyDrKHtRK07h+Bs6AxDrCItrMwuKm2KPcpOjQnte2ouzTnIVGzqa1wL4uthbM5szs12qaON0EdZqwvtLi2O7ctK9Cx/Cxdr2s1EzMbscAw8TRstKy0o6UjtDionrJJtI4ucTQ+NBWuPLF0NaU28TEZN5i2rjEusz+zerMJq1qsHihWuFavGKwVNIUeKapMsuU1TjbOMzkzprRPJagxTrVMr/wzILCYr9msfzDxLnuxVDW3sOeyBCezr7A2spSqKvEl3yeFsCa5DLVTtfAzDK5/MFmyiDulMemuuLCgJG4vuC3PN0usg6vWuAmx66obNJes9LQCOogtsbATrwu1mzasqcQ3SKwJtGQ2wK4uMLwx9qdDpOa09yzwtYOnUbqwpqCxpjK2KNQ0tDBoMboxlDTmOIwwkqoIOt4wNSX3KgUxkaw/tEuzQiHHsSGx1iwquAsuUS0uq6qrDzN6Jl20ECxgtzmxTTA2NLOwvTQss1I0RK1ALXmvXzCSMEiuaDHVsp6wky7GLlixzDWaqgEyvLURtPgjTiuvKZgxWTDGLWoyVbFTIh+uHDMkN084aqqqtimt2S5dNzEzDrl8LsUnjrpXr662uyZktRq2AzXnpK8yiCRjKKWt+qr8MU+t3DacNAo2ASyPOJOw1qdBte23wyRiMCweNjdsqtypQiBQtqW0DDQ7tQysALdZMu806rFetKszs7BlNMGgMS06MGszmTQTMzWsQjUEMnueh7FsMm4tCjIyLIkvix/AMvuzpTFSrpuynSr5tgA0ojAYNQeyZqtfM4m2VC7FMUgwM64QNTWyBScwJw8meCY8sN8ulK+kMzasnLD+sQAxE7KwLYUxXTROqouzojGtNII1eTLkNNaxsixetzCYVbS6JfEyMy7Fs70z8zKSMIO0ETUZOVq0DyAFqNM0ALILsiEx3DjyNI2rerABM6mlpaq/JCMsljKnMy04SygZtlkxTLKeM3esWzhhNC2q5LSGrxqnVK2TtW80hLDPojmtWjb7sncunyrzrRw4fqhJrTSxgC3DJZ80yjSHsDK0OjDFsv8uFzU1KOMv+S2/LY2pDbQDrMa0GrTNq/QwdTaltxwxpTQttAQ2I7FjNPyo86iMp8wkCx7frN60aixzLXIxtLJqtDg1ebQ/sz0uQSSKMEAz7KITtl+zsjNtJCAuezCVKGQyDLUHt/+0EDbyqB00w7FBsTE17p5JsCwwyzP8Mk0xXDA4sVyvMjf0J3O4qzSMtCgzw7gGNUcysTSsNB+yky5TJO82v7NsrnuxiyV+M1y08a50KGqtqjO0qs621LJ4L0Cyui18Md2sJi8pKgywtiKyKUi0ZDNaKUqu/6g5sGY1gbJNrOc0ZixeMrKueKyHMjMv0jDRtNKzfjDENU4yf7YUmyAzcinWsuesq6T2NjutObSLKj+wrbJ9NAw3CK/MrZqvJSajNc4hdayEseIwRat0rfkyYzVkpI41nTFeqxEzvbJzNWSySDhNtPkrYTPZttKyOq80oc0lqrIstLW0b7F4to2qXjACsTcv+zRSMlU0865IM92rlrEGpref5KwTLfwm2i9HNTAh1KXbsRE1L6VzLOExfbNLMUS3zTC+NDu1qLGHMH0xVykTs9M1DjFytCgqQjJHNdy1pjXpMGy017U2tWCtHTLSLTY14S7fMk+0wzJ4n1myXi47tWU0BDZkMoYwoi/rKrSoIDF+rjWlkbN/MS2yWTS9NPYyHLY2r0w4rjAhNZQx+bVCMW6uI6w3uEGspLR1NjC4ATS4sFsyv7RBrGOoOC7Tpz6xiC9+s0wqKiq1pdu0DjCGN161BCt3NXA4zi/4LYkeaDIzse0uvSr5qXew4jQLqJgv3DU3Lck1fyxGn9m0CiknqlOugDUMNLMkF6ngtGQyAq01Mo4uQjJTqogu0yt9tN80G7FSNQivrKymNrEryTACLfY0CK1uqzYyKa9crV+4naxcNWmsn7KLsMGXvbAfsxkt2yprsHg4CSllNFIxJjUztTKkejHfNP0tvLC8uMAxVjh0E+csCSAio7i0Wii8rMekj7BrNeEwkzcxMLKtIKlgKJWnSbF3tK6zODXpNFO1dzBfrY+sSDMSsm8tUCrUNh0thjI5LnMsb7U2MQcp7rMZNv+vCidTM6G0Arc9tgK1azZksM+2QbcJMDKsX7DUL30xq6JLtbSmmbAcMp0yE6RcqTExzi6QK/ioQRRLMdIzzjMDNbuyMK35o5Osn6ohLHW2bDPhFJo2diirK26sITDXs0Qw8inUrMAkaLB9LWe2WjVTsOAz2asNtLSnJDBmqu40OKwOL62yCLjptyW4W7SgsrW1vTXrMjQ3RjjAuDGpMbIxMm2u0bAMs0ettC2yMPKweyXELh86YrYmsFS4ASkfrSS3lTDXMw+yZ6gZNpcuebUgK3gxnCh5tvM3RzJSqx21QrQPNlexEK0MtqmtNiIKNy0xtbBgM0A4cyo8qui1/agdtbylCDWkqC8zIzOntGAw0K30tNMyVrAYMbmxzTgsNIgl9zlQLF4xfDKMOOamSSeCs2OxLLCZLys2VTNDtZ+wlTNXqUuwKiiLMkawPLFqMX6q1jUBNCy1UjjRNluoWrEKslyv5bTjOYYt5i0LLUy1CC1pMIKmXay/sLitSDJ6LTm5b6/AtdwnsLW2NUmz1is2pn0vMzOnp+O3vzUxtKKppLCPtDi0CLRYMEMob7CcJO2y9LNlMKSpxCxZLfwzmrEZMKOvhbBNK/s0LDedsIc1cbUztxa0ZrVkMAe0lTU4qP8z/7PZrG80CyiQuKi5qrEotIOv6y9jqNss6TOGsdm1jrK2sSU14zAisWUsoC27McMxkKJ3rLGvzjDMJCk2V7LrN/ChyqzXrTMxtjAOOEu28DQKNMG0YzYlrkGkBLKDtus1DzaCtJgwTDSMLXikabC+OY4t5S2ZrEUnq6ResWY5cKw8LbK0siQoOeO2C68RMyso6bRetNG3EiYZsD80ii6HODy4jrBvsMSzGDaLtCyu1yhGrrYyGzZtLWSu6K2Ds0wtubK9OIgqua7UsAA4XC42M082DrKVMFm4tLC5qYYhQreapoW2PLDLqWgyiTNTMaEhuLaqqbG0N7brsger3yPRsCizfzALNssoRii2KgKzjDBeOBuqcK5jtso4KaxrIwo4kipWslM5l7DLMqqp77JOOTk5jTVaMQKyDzaLsC8y/jUlNpw247gDsWyvCzTpsDO3jCsAPIkztK1XtBeoCKKULaM25KwRLgyRX7LcrSwz5C8fM4c0jjFrNMkwADmFMHE0YjQONYyxvbYsJKMlyiRQsNAg4aW9IBosVbUqLViwIbjWL9mVbzl/s5+oTizgqCOpRacNtOKppq3hKBwsOCtbMWUwzS0suNm1eCnzNRMjgS+2s2ysfrIOIuowuRqRrS017iz4rCs0jbHMsc+0lTQWNnKrQjJDrJU0XSdNtbq00bf9sOwrCLPhOLormDHqL7+yozLTrW0sVScMsxW5MjZSNhkzWDGErMSyqbTfsHGxrDX1L3+jVzhuM4e0xTEwqvkobiyVq0g3OjrHNcsybLTqslOys6yNtM2mayw2IlY2oa5cMjyworQOtACyYaU7thO2GbVIMH2rQbE3K7izJLQLNHi08S+nNNC0ObAsL2q4UzJYL0QhE7QlJYitqjWZMROsbDLpuF81Bi7sMOSfXaRistGraiq8sXkwkjQDuf+0uzPuLrksnrIgLwglR6ptNQawSjHnI963Iy1PnCgd5yzytUosNTHZqxMwaDfQMw60oCQiq6k0eyMxNUeuFbTus3MyLjKqsZAyby4osDq1GC1JnFSybScZrEawYioZMNg0Zy1dNTYtEK8WMoQsIqj/MFMicrTNsK8y5jB+MVyytaW4Nm2uZysLG+Uxy7Ejr3owE6a1LKUyzTbCr343CDZJNsmxobQ3J0aoC6D6K98yyidjroqypa+GqGmohDd6q3w2CrNRNgux0S8cN+GzLCyXtLsxSLC3tHkwNbJxrL22Va16sBaxZKxsLvKs4jHVMPA1PrZqL/ofwLVKL1+vKDWzLp8vVbaFqKExyDTGKC6x3zZOtf+wZKqeM+QyICUwNLSwJq7XN3SpKTXRMpOuf6XQtNAyOTHBsZmqGzTjMo4qPLCINW80ujJotbetM63sNoGxZC4spkI3TLH5KLkxvjFvthI2pKfKtXspMC8ZsaKLwq2TqFCoaqzYqsathTZ1utctDC4atNMpPbCKOHgs4zTcsk0siipbIrG2T7T0rPS2V7jssVWx7RwwKBO176qPL9mySCVotFW3TamGrXSzajF8rok2hKpnr7OwCTPLLUc0qLi4rY4sUqw0tDOvfi22sXivYjNkpyI3GSMFqkkohLYLLdAqbLB2sjSutqz/NxyomDFgtbKuHK6kK4KtsDGALl241bYusRw1ii6LLWu28TBorP8uNyAUpQIqsysQuHawfCusnGsscDehti64FTjbsKSx4q9lrpswmTDpNg0wKzHZssw0UjXCL8+ySrEXqvirWy6+srkgRDAwOCW0sS1pJRs7Z7Z7tFQsvrLht6Mt1TKeuGY1tS9EL22uOjgPqvKwiiWeKja0PKwBpI63W7aFMMWtIrM8q3O3VTOJreWkjLWrM2CseDG/LAMybjn6oCwxzjKhK2u35rBFs5+sezRuOPawMzdTtN20jjInMHa047QStyCu47cTsiq226cVsSgvAzExNxGnJi2ANusw3ixpqY+2mLFgNyo0U7XopEYworWFNQ6zvDSzKHkwBqFEojg1RDUeNRi21K3AKp2x2KoHtlC4LStipkOwezTjNs2ySrZ4tjMqJ7FgoMK05y+NrdopLLeSNFYwobCMMXo0GLU9KhA1i7KttF2uzq5VsIYyBDmNq8iuN53JqmWzO7IGN3WyjqoMsNqyxjc1M5quiisMMsSvpifrLXI4m63eNOulqTD7MQ+okhs8OK0zODChM3SpTLN2rM0h4y3gtYKlYrHQri0wSap3LS2wjLAnM7Mts7Jms1434bHiNCs2kK7wt0eytjYULpUiqi7ULnIw5jdRtnSpgDSEpA21kyxeMrWoOiQDNvKo5TR8tWG2i6nuMD21Da3dnba1b7TAr0Chn7E8KFo6XZ6ftcCqgi6VLIOyu6wBuTMQmjShskS0nqwVtCUspTPMsdeyRLNRNNe0ArPaNbqvziQpKwEvVzEvMFgtSTIWNSO0ajGCr3Sy76dWrsKocrRnMEcsMjGNtdWx9CbwsWa0wSp8M9op3rExq+a0LzjsMlmxDzD3NKCl2i9xMcW3SzSVLX8tcbX2Mc0eHDiKLBIw3DSmKXO1SbWFrTCwS7VQqV034xjbt7qxAzQJKTO2SbFUs56277MvsVesiC4KMIMsAbRUKEUy4TGtsSm37DXus0ayUKCVMKAy6DeQM0eWAZvvpcA4KDF3NYStAKHgLDEyXiweNDcwE7TPsZOxhK/IMWo1KzUULjEsLTMVMNYxHy0VOCkz7rbsNPU0/i1KtU44Uy8ZM1K1YK4dNFor6a5ak6CsTLgWNb6yArN6tMCvVLGbtC0xna3TsiSvf6wLL+E29zEKqDojpjUJtsk086ihn2KuabUrrN+wzLhZNAcxczlbt0WxFLJGtgWspbAOKYCljy6VMb4w/zKap5u3jqxaMl+5zyfmtpmwsjohM+q00bTrqLexubCoOK+q6Su2NWAwMTOrLdw6MTcLqQK01boQqN62dbHFLIAyM6IrNZcvzjJhN1GmL7AhJliwxaAeuP+xp6qkGkywUreGNrg3wjJGLIQzsDdvtuYvSrgYNIqxhTSLsYAUxzUTrpwrSbCVtncdALQSski5yC3lKLmwJKvGMfI0UzNCNEQkwzbznjSpgygstNQjTLUCLQ043ymAr1Q2ybczsfk3IDC4MpuvEiGBOPIrK6yOIgY1ObA2JTC3DiV6sFqwmrD8snq0ATAorrmyKywDJYI11TVNtwEzybMTNMyxa7U1pREuDLDuszs31y7stoExRjRFND2wsy3FNTe2UyukGxk09S3xqYqyurCWNEohiDhbMKG0gzistByzpC66jie1xTN+s6k0FTPcrzW2irVUsjomNR1rNl2p5jVmK0m1mrNcqhgqGrMdrFktoC5otG8tr7HVNok0IDTXLzk5TbT1Lj40pjNbM0u0AbQPscIumjhmr1e1CTR+L0CycCq4N3exoq4frwcpIa8cMLoxNzjsNMY3+jIptKSytzWkrg0zgZsVJQmvpzRoIUcyLC7FKAG1va4ptZY0YLNyLIOw9ajGsXGtxyv1OYE2jKGfKeotRTHzukW0B6j7OY0xU7fKslG1WRIEtK2sGjD1r1W3Yy7trXqyYa5AM2C2rrJzNFsxIrR0oUYwCbW1Lj4wyjTsMhI3VTWZNpasJzKWsFo0l6fQMNsxqba5MVylJCmjMCczAbdTKLs1SjbnNSY3daZxrDgyBizWMI6vKDVSL/W1djPpODYagSkKMA2hK64wtJY09SwBuNq3RbV9tZMyVZmYtEswGTBoobe1vi0JMveugCzWrCaxADKysBA2Q7IRGNQrZjLwLc+4RLg5tN8uxbHtNmgxIzVns+ex+6vKrHKiV7Wzq6+vozT5Li0pcLA/tSG0WDfzs2M0LzbRLb2p2apdta44rqbLsHOr0quOtBQzw7E3t1kufKxKKi2y1q/rsBE2ErrSJ8202LNBtc20YDN7MuI2Yi4fOOe427ICsLUnLS1SNlQzuDEjLga19qiBNs8xbbf4OYEyWDNMMWY5NjQqsLGxTDMNNzo03jUprBeoW6n7sZU1Nq8gM801th0UtbIucLgENNmz569RN/CsYrhorrOsjzFmIR22PTnfr02lWzdVNC04G6xHOikpcDFCta61/zXaHGG7WbV6KVqyajGtNO01hLFRrRExKapPtBs0Qa9MNJKxYS+bLbk0TbRQtEK4fLcnNGW6YDBeM8+4ohHjNSGwdyeLtIksSrQhMU8xqjGQtmY0jC32McgsgTcgsM0r/7KMNGQewzANKombUS++tf6xxKSUrMc12azqK7gpOjUjLk035DRhpPE1cyR+LgA3HixgOectPLSWrW8r0zkVKx8uLq+cNZY03aTvqLew5i39oMS2/zGSoDu3KjAPMo8lOzbUtCqykzVFKAiz6DktrtOoOjLMtFEinbQwt86zATWXrmkyHSgFsYKx6bU6KmUy6bBSssuswDKdMfOkCTAVNhq2EjJjLd01tzn0N4OwIbWxrjQzKjRbNcIoDa4JMoQyFDT9M/CrtzKEKi8m0ylptRKlTLclLaa2i7AvHTQ3hSPdtBiqyTiCtMAyuymip08xR6vhruutdDH6MlYyLTUJL7oyiyHCsKA2JCgHpGa5xxyLqYuw0zDfNAgwXrcANTasMjF1suAxUyQeKmqzSDUisFusz7SMqdSurrJ7K0Az/zaBtcYqJbbopNAsPjS4MHmvILR5sSapxLE/qDkwIDFmNOGllzRLNIAwSrWiKfSrrjFanLw0IypKrTsjcTUCqUI1ADSkI3KxhjElrgk0qzQJMP2woq82q8CwArEzqhuyuTBtLrgt9ywmtW05BbDNLkqwG6mvNZY1dbmXtbO2hLEQqLwwminiDdE0VS/wqw0e2zbdsBu1CDRQMWs0/SgBtaexljoYtaU0KjDqOFIsvjSLsgm1tSwRtkszBbRDsQM2ADM1rfeqRrjGM3W1NrpQuJOzX55Usg24PTHfslUah7AtskuwHy9FtAkXQjQSMJo4xDZsNN85oDVkLXSrCraZrZI5PytHseiqHjXVubQ1BjU0rDy0jbR8LXK0y7Txsvu1Wa9AMO0567CtMB45r69vMUqojrNasZiyeCyAsdqzTTdBszG1gTSaNWe0f7O7q9C3LLOhN0uxkjITNgKxpbMUtmIz16pPsKEzRy1pNuS1by18sJS3ibZJtX0taLFtsbo4Vjc1Nt2tg7gpsPy2NzgmNFm0LLV1MVSwCyZGs5S4rrCjqkGssjD2tLUzxLSgpo2yti8zPOu0UbZEsx2tIjiKtGcsbzaltZ4rTrJ3Mbu2Qjc7uIG00hs2teWxBKyvsDyxU7Ueskg0Zy2DMvmwpa7Bs024WriLs6gzFTEaOGQxNafSM2MnObIermu1cThhN0UxgDXQoWe4SCxPMSQxSSMuuK0tLCovNvewaCLHsb6sjLVWs/Wu+DW0rA8yqrIisTWyI7GxrA4zSCcjNR4pCzhtLkQ0BLU4sLqzQChIOCi3m6HSNZo0oSllLHwt7LTzqY+xVC3SrSapyzOTM1S0mTMkqfYqUK0NJ2Ovby4VNLM3YiqEuISyzbV8uO6ttLZaLCi4pDBstreqRS3/Me80f64BNM65by46H160cDZbNE8xtKzKIzcsMDMPNFm6NyC4Mn+3dy3jromuRisfOOuywjfvrGmsJLSTLYaw1ip8KTS0QawipUKx06yRro+ynSJzN66zW7k+NgoluDQ6NGA04KxAm3Uk/ipdNTws2rVdOV+uySyUMZo2VC/vqmEu5zP8M+2ta7Uls0UjaDK+sbK3QDE7sdY2kS8YqIcxYCy9OIIuZjIfsbCrD6V3tTqvgCz7LvQ1+q4Ftkq0Byz3M/02h624K/YoGbVEsjIZNiypIUEsaLT+LfCem6Xus0a066x8uuu2VbALJGu1UKKQNiexjDD8Lji0STX4thWyVzZGKEuwpTVbL1+0nbIwttEsFTD6teCpG63MtWI1N7S0NDmwwarRqFM47LXXMlKxsLe1sNOwRTfkKkquv7TvuNqqabVQtYYrVra3pk41xrhMtukvZiHpNcO0TbhCPG+xXzR+K7036LHnLEA4XLpPNmY5gTADuES4qzGiJ6CjOasROH8zBCmVti2Z9bjONbcxXTTUMa+qaazzMH4zHblzryI2mbGTrz04RzTVtL0w97G7rUG0LrOLulm3xDUkOaI3krP0uHMySTcltN4ogDCxskM3BbV6N6w5jaSONJIunbNONK+p0LYROOI1mbfzni4xzjGOLq0qFDUINPytGa/gMQUzprTRqvq3ri+Ytre12ywtM24zaqser9Q02a3ZtHGw1bCLtDG0WDZAL+S2pLMKuF23gDT5sJiwmbVYtAquxqpstDSrJrSNsES1KzCaMQ2yA7hKNNK32Cw3s+SyzLHeNCSs+rEwrJAx/KDgrju3STQMMj+qiDf7Mhcrga/dtd6xgjBbMj2u8LXTsFG2BbgGtGywOyy0NTiy2zIupT2wZDQVNDK1W7N0L56ytS76sNG0c7S8DJkvHBEkIsqvGDZ7pNYqzDEXMI60oCFUMcswBi57tJGy0bMetksuEDZoLZY56LLWNwevOrn4qfM3ejGgLx21DzYrsFg1Tyxdqz04gzKHsfUxxDZgMxw0EzXCtP6yDqhvqZKsUTFRtpS0t7DrtAE1P60uM6yzkjXPq9IwUS9bNR400apsLWy0j7maNCi2+DAWtCYoQq8+K7oxircQsDUnIq0MMpkoLLSRtHA0sTMsM9W17bLnMyW5Ki+LJAUlOrb5stWoPquBMFyh3zQqtMsxVTHpt1A3i7O+spAoJ7C0Njim4TQUNdgutjiitF+si7Hssyu0n6BnoMCrejQeuFew2DTSNIkyNLScsHAxTSvlqH0tVTEysBA02yUDOIWZ36jOtUCsYDElthEyAKSMLqQhR7h9tnk1cDFHsKazaKRqKIQ2ba8mOEA07DhDtIMibDcXtEkyByg0tyay6SuduFamga/LKEewwSzRuCUs3Dh8qFM1LaW5tD+uTbXnswK0WzBkufaxETYPNyGz5jQQtBK5j7c0sIo1JznGNjWUDDcVK4gtETRzJaAxbTGUtki4t6det8Sh5TBKrveizC9yKvGxbi71q3y0/bLItD03qTQgNmqo2DEpuDW697ZnNsuxi7imKom3ibTjqlayzrbiNUUwgq8xtkQddi48tMQyCahBLGk22CzErFywTK4WKIeqILWONTqz0LHjstm14bUcuKKyFDJ4KBoxSTAcNBGuGrRNsM+wELUcL/8qXrBBtGyzgDAWur6sF7PLNlG1pTMtNCKz2jKNMN+rIzZJslWy7jc6KwOxATM4rqwxbDG8KmMworbPMui0R7EStjQxjDStMseql7gCsjQpLrD3tCs4r6zGM98rqrW4MAi0pqybt4oszbfuLYg2NTCfrzItHbANLUQzpyNtrmgxR7RBIIKzirdgtbS0za2UsOOzXTPWqwIz9jD8saW1ISqSNa82z6xZJKUy0zS5Laeus7iKNngvFbaZNf0mbTT4sc22w7TnL4WqJrEsszMy2jLis+Sz3jPdt+s0Crp7sdkpPjNWGHm33LSEMjywmTAdNYEpELjVtaCxorNLNiC6OCpoNk4ykLHRs1UoSjD6osywWKyxsm80ca+Mrniq9CUSnw+z/jcUsb6tWTU8NZ60ialPrPwx1LEbNa4nLaUmLLMzhicdK+2vqjTpscKst7DOsAYuyTjNsvQqOzPlLPstMihWtG6sdzgpnXM2wDBtNKSwa6ckqcMgA6k1NqO4MC0ENyUz4bcssHi0QTLjr8OuTLWCMkculjcVNWy1YCsGtp+1O7lUtYi0c7BJNaA44yyGsHko9bN2MHUrBDFnNLuyXDVhtCm1qq7xsCuukTAAshMxYS1FtLm21zi+sGOysyp3qPovXTSyMjwvNK9Hs+OwvK9GsTavxy76NTy1tK6VMuIwRzYDLNOvPLXBs1a2LDO0Lw2v9bFON5itcTeSLsewCzLEq0Mtb7DauOK4PDIDMKsyQq2KrbmxYimDN2E1RS/ONVqyk7VstgO1r7kNOLCz3yw1NlYpNbGWtB64zjJ4s3+4TLmxuPCSQragtNcknztJOgqyALDoqw+uxzNwM0AoOLQ6rf4zILh1MDY1S7qcNJMstCWSq342ubT5Oao3qbRHsH82JTHlMKKwkymAORk3XjAXszU0zzUtsLQwqajprcwyea6JruWxXioatXo1uDr/MHyt3yuPr8+Jcio6NJq3Gp/JqgowVKvTsRs4J7hooDCtVjVWMXuxFzRxLDguprmkMS4xbZaKs2e2p7TItLiyUDW2tkssxjBwM3Y6kC8OuVM1SzmZqb6vdTVLprit5TOhssoueCU/sRKszrV1tVYzu647MdMwtrZBMXm4wziNsvqeOrGRs0mw8aVgtZyiLDTupHMx7LA3K6S0f66hoqo0MrAoMlSv+iQht9ytsSq4svy1sDQ+MmUwvLYELG6hxzJ2tM45qzN8OA8zvaigtcW297KgtESwDTkoMfkvOKkdKeciCTTBtNo2kLWosfS2ZbLjGPakeaBDsw6y8alhq6qx9i1fMgIb6TLfNP20f7YIMfE0Yy8ULiStrzFtKV8yRrVtqd6guzGkrM0gXbMGKWYv+7WnsSm3T7iXuNQ0cjTqL10v06lXLwmm2CyysoUwETIpNHuxQDbxtDMxwy30tLQwyrM+K+wm9LSGMog3eTL/rxQy+DVGMKqwkDcjubiwW7L7M9EwBbErtFW4v6JELam1dbQwKlAzDZ1mJwC4myxiubGrPzb/sWes1DWbpoWyGLitFEWqbi22p9wv0jdSHEQxgzanNcoy7DOop9IocKhDMTIi+S1wOTC4KDspLgu1lrKMq1qy7DNutbimOyuzs9y1ly5craQwbbgdMii6RjNxstYs1TFENKqYe7EuKes0HjB3KQ8lOizGuFqxDjCJNc22DCkisg+1+jO4OAi1QS6OshU5FTJmt8ywP6u/OfGoKTWvNbQrFrgCOPA1OKh+N+q4YaaFLScrUzAfo3SdYTC8KfK46jhPtSqmT7SBLn8pEDabtf82s6zjtWq1UiY8n+eyVjWIOce0HDUZO8ExdbflJ/06Fx21NjEzJbhSnDSdCrGbKcMwErCksW22H7eSMjUzbTaMNeC25S60LV6wH7YUsGAy2TPHNHgohbWyrZ2p2q17roCyoZ4MNl24f7IVsVi0vrA6tNux17E0L4G5fDbaKF61w5t9MeyzC64GNdAvSbTasxMqWbsbrxo4jy65KM014a3xGGu0WawptHc1Thw1KGo0Mq0vp34xarC9tF6qyypYLu0yKDb2LC+omrA0thqnybQqMHy23TVXtPC1tbbqsT8sMTFjOJk3brnTNFmqAbWIGCKpq63OLPm1GanwqM6xCKF4N1Q0UDCbL104EbkJtdMzqjR4Nm2sXjX4HJq2rBZ+M62tNjZqNnyshKHBM0y326maMY+seLYTsOYubSoCKyeu6Sgflm+xFaddtkY3zLavOCU0s7hytkKpjSwkMWuqlLH1KOs3+7LwOPc1Y7R7NLg0zDLGsbOwd7SuuBM1urjasj4vI66jsTc0/rWYOWAweiqpoWQu9CPPs1A275RtMh81QSSoOJ6yRrZsqKG5S69MsbiydbKNtAG3VLEMrlqudq2NNdsyix0IN9smwLJTLA83JTMJKCs2HDScs0y4/zQ4No+4DLc7rZEh/iwQriAxNTJ5NDYxrLAGLRCzxygnt7KePDPGrwk2GbAbNPopljgpphEybiwFq9Elw64ZLYgtjjdFNLg1CqcMNGgqNLV3sNuaLzPIrhs4LTR5tcK4LSLsNpmfyjZ1LHu2BzELLn4xQDazreCw7SzbOFsorDFusPCuNTXMOCW3CzSvNCA0VLTutkq1o7BWt8mr3rNDOPuzWLMcNKIx/7QuNNu4sLUgNhmwtbAAKtmeKzV6NwixoyfHtEUpNjBFLV8rr7OlsnWtdrnkmYGmpTFJM/6xEDSKpQEwi6nirkcv57R9Muy27zQXqgsz/rvlNzAwGywFno04FLi2tdc1trA/s180cKZEM2Yum7WntWuwArbvNxSh57XvrRA1BbaOtzovRzO0si6UeyEcNgwyDaWMMjC1MDhXMvc4UjUUMg0uLrOXNzapejxNONmySDYiNCIuNLJANLenMjcZtHk0LLFuq503ZbYHNNE7PLS5Mpk5lrhUNQI6yienIyIudq8YMAQxSbgLtjEs4zjFusQ1ZadgLgWvXC+5NMQwnDO3NdOtV7mzqRY4GDJ2Mq+10LS/sCE0BLWwMlgkcTEzNd23sarstzmzwbBttkwyhxtVNJ8tjq1OtV+x3a/dL9k3nTkwsBm3UBw1t3WnQbRdNmE1k7E+mRq2haw4IJssoTI6M60oWym8Jq25Hrj+sJWpXLjbt5q4QbHKsQ0uGpn4NbKstK0hrVqxSxU0sCssV7ZxrpAxuLTRsIu0jjJ8N1axhCkSHKmtKyTQK8E1FCnbNr64lbHAtW84iDIFuEO1mzjItPamFrTBt0ax0besMcaeD59lrAE1bjses5Esi7UyLBU0ALmOqhSvMqgcIykxCDYCq/w1cDORLYM3rTWgNGi3IqOrr86177jGLmsxhbJtuKq03bGduIayy7QUNCa3UTYKtCozsK6SLtYtprbptKm4mbhVt0E0iLMeKog76jldNGS5YLXer+E08jhqNAuvlDvlKV45SjWPspAsuSquMjU5TrdOK6ewpC4tuWqmR687sRO5u7UeNDe45DQttfCv/LXVsVKvHa4EuO0wRK9HtLgtubVrrYS67DR/NvO2668CseOvKCwVOAO1hClIqUsxXDSktf8xdigUO5m0U7iKN1OxQzMjNq01W7iHtI2tU6e5sB8tADfhsEU1zrFAsW242bO9LXu0zbLurRm4TK1+rtA0D7Y6sfszRra/tUcuXDe/tGiyRDGJMSQy/bFvNSk1IizYqBEuPzI9JLYd9jbjLzyvVTVLuC0oNLdjKfSwPS2lNY+1wLe0ur44FzDYtM01Rq3ptAkxPjb/tXu2ark6NFCwjjWktw+0VC10tGusOrTWuKywL6zlL1yw+TWgLMAAxDDBOLuqWS0ENKA0TbNJMqMk66O0t18gDDgGLr0r8DePNXy0MDB+tFi2mTk2sn0uerF/sUY0SbHdNss1wDKeNZMqyTD/swc4fLhMuOuprDcQqCe1Y7lsOGqqnLfOs9GzuTBAOGEzpx7pLogylzQ2Nm+1bjTTujuzvrUfsCkzETnrLMM0zq5upnA4G7NquBYxWirlI+YpuLTuJca05aryMOM2HbTKLYUxcTQtLUUrLDGCLCi2GLQjtg0zfznwrwi3TzKkr3Qv7rDHrjs06DVWJ9SxKaKQsVu12CFuOcy1ezWIMk6yoDABsq80nyyLNc0zwjQOuXQtYTGGMYwwWrHMMne2NjiatR6ts6wVNS+4SLBAMEQujzRVMZSytjYiMpSpoxcnn5g4Qq4drHyq8bKft3c0Iy5AufOxnLdcMgervao8tREzo64PMQ+zay1KNLi1xLAPMCo3ESBGN3AxPDc1pm4sLbhSmX044LZGM6q1IjiEN5O0D6zQKnE5m7GsLVszsDSErsi1Agj8NXOzn6vAMJ05kjUBqSE04jPsMsAxvK9Msvs0j69PNDuxVjZptDetkbIOMOo1kzUfrte2CDX0skAxaCgwN300HrDQsjQ4u6hhHH439rVdNPawzLJcMz00iTZeKbA1XDSvJHO2DzVoKAIgQjUoN8E16bbZNd2yzSV1tcWxHq3/HP02pLO+rastGJxLqsozTy0aql02FjVgskQ3Sjb6tHE2STXMt/AxyblVrtayWbMjrD8n4bC8r8Ip7LUrr0k3NLCsMl2mVrUhtCYzajRNr+aw1TjBK6osSrOpMVW10qASoMC05LXBNg4s7p1JJhgwnrb9sV45+DL8tpqzG7JzOpqzG6CGsJA0WzBLMrWtPjOWuB4z0ThTrXct5CuLMR2ycq5Nr+CruLgLNwm1ercLMcUvErnFsc021DWJOB617K/VtxYrgC9PrMAzvjMYLnE1lTgYq1CwbLaxsio1R7P+rG+4RjI6OBkywDQZtHcw4LkTMMGvMyS6NKOwC7KBM6Ay/rfqOMgx56uus7E4qyort9g5ajdqteky97QnrSc1hrcHMTW3TDVXNdo7DKD2sJM4aLXFMNWvHyDxtCQzaCxJNr04NjF9t680pS5itWE09ir+uGwp1rtNsnEzXiy+tKO4lC8DLE8qRzTqsiE2G6ZRq9EtVDieNTAsnrTnMr8jJ6nTNgo8Fa5wLimdGTrvsv24Ei9qrRA0Pbh7OBqlcLJMuDM2kjMhLya0zCwRuWG0lbkHtbSx1jmeN/y1ebHxsPWxyCx3sj8kg7PJtb62+bR7ONSkBTUSNKkwZ7MLuGg5STTVNZ8zY7LUL6GwciwuuTi2LLlzsy8xj7eFsjG0CbqFtGk2qZWftRm2JrBhHUm5uaZHpmGt3acCq7uwnTPZsOcvfjbCsUK0dy0nKUs3QDBKpAOq7TIisGE30zKMsxWwvh81qVWsNjnjqe+10apVr3q2VDSKuA+0szBMtNsrDbjCpz+34i11q0IyBzj0LSunsTIcuB2yDzIPIO6plTcNLic1R6u3L3M0hCk4sHWucrc4NCQ2YLCnNbWU8LQetewyu6+9shC4BrJKKdoyuLL0uuu2+y6vug8r9JnFKPs3Ia6dMKy4B7lgoGC1TjiUsbw1FbhvroS34bX4N7+uiyobtGO12a64LVisGTIzJTY3NqxJrK+vIDV5rz81orPgMg20SDZpuTku2zJIMIe4wp2tsiosVTSXoPq2eTE5qW008TI7OUG2czH4KNsnE61UOoetOiRpLuKusjOfL0U0mi5TthgzbLNWNMC17jRHNFKsAKaBMcg22reBtGExZS6AtaGw5zatN+M7L7IHteuxeDVRstItSbThMHKsm7S1MPWyCLIJuZU5pzjfs1S36rGOr4G7N7E6OwEpnyynryuvGDfhLbEnjbCcuKC5BTMwObki47R8rKc0iC0isLY3orTerkqxzLU4sFWv3jfsNaqwarlYM4+13x/usPK1pjPXsmUy/bbBuSy1HDi9t9s1qLTZOFo1f7HVNy+37LYOJ265XbOFtgmxqy6wOOw3pKtdIbsccDnOOM4p+bUQsRk0wKn0L+awH6ytNaYsKDQ2Nckw8jHrsNKudTcFMDo0GSofHvW4PKS3M8UxgLCNqegy7jlYuFU0arlvqnSyyzAwtMSmghzLMSI1J63zMJk4qTYWstU0k7LiNne3QbWeM5Ut9zUnrBEeM7f0IHG0yy2pLdKnTp6ptNIpSqzAqIqunblnM8o0xqxGOMWykjPRNAu3IrrNMC+y2zCHs+CvJDA2rYw3BjWPo1cyTjaTN2kgea7FnPYuryYjrUG2Wy+buFOxV7DKL0exwqr6NvCqAKgSsWStnCYgMK6xTTQEr66tHSdOtRMy/ylrM1ovdbTgsbY2zzKsMLyxLqqWtmCqRq4ZNfy2KDeUtkwoJbjFNoUvgS/ApCQo/jTpr1qjBifytb60ebQcplyvXbRasIi2YTWJNamx0ra3szKs6Ky1M8O4WrQaOLGwgrK0MJKivjctGwa4A7lOqEWuhKyartozsTFmrQY5yjczt4+spC33N76x+KkUuOQ03TPmMHY1hzSctSMwSKwXs9CzGjTtMh6pjyKwNyk0BKzVr3kx2jhZNmA1xrNnuJEsQiqXr0ellq0YsAIpk7S2Olu19zDktx04iys3sNOq+LAVOFq2azhPtgqqFCEfNW40gCM2tAyZ2rKoL6S0LTHZNXSpy7VTLG628DEphomz7quDspK1mjL9NCqw0Chbr6Qoz7QOsegwlDihNtEyKKSvMXq1uzI/NCSsTKgzK84mXDOitm4scilJriO2OjEysT6rVbUxre81dLRDMLEwaK+1sg84Lra+NUS1Rq0xrv4xiDMGtH6w+jhPqoezT6ZKNcaq+7Risbu59Dl9LQcuZTdmuAiyLrV4M1kgwLBKN8q4pi0AMuG4HK2nrbypqDhhMog1b6aTMqmuxqY9NMo3fzbTNYOw2zeJtLs3kyrsLl23Ja4Sr5y3faooOMwjFDM1NJE3dbQhtMI3HTbmqs0zEDYfrc44eK0QK+8tc7UFNKA1j7PjtVAzGbMkNtk2cK+Mtuc1ELdTtlq4fp19rP8y0LfjFVy2qrIqoj01TzOFNV84IS8buL+vcSnBLJW4LTOQt/ehbzTvMQazCrVhLD20n7ILNZm0FJvWsUK1+TiiKsc63jEmNpGrtTiaro41x7GKsGcy+Cx9MVsx/bSOOUy17rVNNJm0ArWzNQQnVLbFsR68Jbd/qnYykTjLOfaz4jPCpBw6+K9WM106tTDuNq+3H7uesyy0Abd+sK42wbO2r6A1Creiq124d7UOqGq4tDVWnsE4DbelroWl+7ZtrW+2Gq4FuDM3ZDTetPYsMbSpK0+wHKyVOO6xhrJJsJSYQDDwKHE05rSHMPu33CVXp66wcSd1LsSy1q3/H/4z7jD4LCO1ea7vsHo0V7hfKPazE7burBg1Aa/UMpW0ZbXeMZi0iSoFtQe0QrFCKYq33zEVtcOxbbQDMXct6Db2tR6wY7g/sEoyTrVfNUitXLTvNOEp/zYiNR0xNKoZMIWzSa0PNLeyW7gCuW+wmCFttHIj17XDs5A1kK/HMcQ2kTnvsvKs1bGqnB40BrAJL0u2TzB5ODihMbIQLqe46LYKuOovybckr98yDTLGNaYzPLRJsvgt8zVgr6A1rTRLtDk0qjTxqb01jLU+pNQzvC/ANpqtDiBgI1u0MSzuKwCscrFRMl0tYKCvsuUltLf3qwesiLE5MJY47CtRtCAn3jfutgC4PLpPqyYh6jLMLIa3ljalqUY2UjU1MCetz7b8Mwq2/TgKtQMVwzE2GBYuaLODqgowkDg8Mim2YLwvPKQ4MrR4ORshzSIKtyA20jKItQWsGLf2Msu1cS8juA66uySqrtkx6qx3OL64SrWxuFemKS53NzgzMzPNs5GvnC2pNf02VjmdNSY1qjYUr34V+rTguWi1ODdHNBI3QC0bMPiwnbilrc2ox7B5shoyGzXKsiYfA63OsKmyyrMGI2Y3L7J3txa4ASBLtBowFTSTs8G0UZwKuIg2aTwXOIAx0jf3MD20UhvDLd24nbPQtZKwxjU4rFa0sCnOrTesaSO5LQY6HS9oLDCxVi5MsWwt7zUpNZSvwLrhN2ezxjQ2NQktgjEFtlo2TbiduNoxGLqjtPW6qznsuD0ywbXoK+gwgjf8sGkyZDhGuMw2iTS/KSU1TbGbtLMwQTQ4sxY4Gaw5McgxULA9NMq2VzMROcW07ro3NdO1WTY/MOeutzVRsqAszKjEM5W2Lzg8qi2syjJDLBCkprVHtBE6qjEGMYo4WTY0NsYv6i7QOHmxTTNHuS8xoja4NwM2YLc/uAusSzcTMMC29K0pJDgzT6xdtes1+i+TNBqxq7FqNHA5A7BXLDK4+SuSoX6xHrBUpgm1v7QFsru1yDgkuRowsbF2tXMt27fGN5e0F7lMK/g2AzRaMrKxPia6tzGu8DOJNcWy+ym+sYa1jbQoGEM5HzVQOHKwW7j8oG2yIjBNNHIxnzijtzS2DS/oNowuKLZSNGkxnK01OfmykDXStKQxX7SUt/YsxCdIMTy6sTHgJhQx9DUntE43zSUdrla26qe8t801j7agn7G4755bsrqkYS7GrHEvJDQ9s4QqL7eGKRq1CDcgOWavGDYANA6197dBLyIoRbt0tag01LXnt2i1h7RNM+SpD7c7qnatHSgYNlAqOiA/MzG4GSo6MFUuLrQhNfOrUbVzJ1EyiSlsKgu5nDSeLa24uLXHqKS5EaxNr143jrQ4J32wIDjNLue2uTX5uGqsEq3ZNRIpgbVpuC+xMLTmMSCzNjJJK74fHixiKKCrJCkrtc8osTP/MGe2jTNdq7c0Z7iOMMkrNqtjtom0xjQBMrY1KKrfMcKu7LPuMXY0PbUeOBS2WC3NsYCucTiBJcyUbi3St/irHLMaLc0hJzO+st+gtrGBLdo4/7YGNmi0/THZM5YqqLChNFu1WiNKsEY0tzgQtXa0njLhN7S2eSw7uLQ07i7JtmmzsbAXNF8vPavBsCE0fzcTMOw1gbnJuP0siK+WMhiwOq2WMz85vTaRJ0a05jSpL/O5DygVM4qxfSekNl8xDrOMs00sLjb7MnkzRLGPsyW6X7PdLA+2rrbpN9e0Xi5sNMQ1Pre+srO6+LVdtsi0ObRMMLOsp7mIuhCo+TlGqQUxKLGLOJS7jjgJMQMy+zCPtvW3/7RcqWyyLzypOKq2ArMJuHe0V66HMQA2HjwitIW1CDycI/23LrZ7s1KuYTTgNx00lDXPtGQ1nLfltbw4mTm1Lg4rr6SNsNo28biUNMG8WrNvLMmlT6moOYKqLzWoMHA0gyV1srSyiDjMtF67Ljc1OKogqS2ZuAqx6zIdMiW43aKGrOGnprgPuIQ0aDTTrhCwnjnjrEI4pzG0tB+4bbQHs2GwG7PVJlW2yqKLK6a43TJmNmW1WTkWMJ4Vqiqzs6W6KrSfMVK4xTXds3Or+zTXst00HrRyNvC0HLeJsBWy5TCSLkA1UbQbN1w0Uzi1oC2wVDTaOrw2KbRiK5KusbUnNCU6V7XnMFyukrWJqsS2w7Gosl44oznktBU5WzRbOSA0u7mVMpAyeKhGMZox8bL5sMg0TbQ7uBA0VK3AMd033ji3s0y0syk+tT4xJipDOJamIyroMY00L7agODcuKzY7tS+vvrniNUCwWrptsoW9Zq8jtrOs5rLGJIY04i21M0S0izE3uXiyRjKmuLYqNzhSt6gj3C5WMjq1hLZqrOCr0rJVMyy43LgENpO1OSr7sKuuvqyaMHc0djHiLAktbjRkNjOzlDDEIgoayLrdtR03pzVuusw3tTRMsvE2ibV2N320fKlVOMy1rDVJN5m4jy12NV8xMLlrsI+svq+APOS0RrBmshwy/y/TMz024zQJqUw2tTZnMyc4PK69o3O31DWKsYQ4zzB6t++aIzXwtwmspSmTuF6uvS4ANhG1DTfEq2i2wi34N36vfi9BJZIqA63WtFmlHLSzM2WpMDA9ueq4IDYMKEwo1DIfsFgx+zkgsEow+qTJNT21jjBfq2QxmTWquGgxHbZjuauu4Th3sNG6RSgbrtMzZjrMMLa4AbHoMiIw07dkMA02GLCJscitALCctZWs7Csgs2WwULiarI64Krdep5G2IiWIsYm4fzH/uHq0wK5QsN81JDLStMg1AzXFtFE44i9VOB6xH7QouG4wRLTktkC1bLCeLE2oHiVmNNEszrWwMhSzUD2wNMi4xrU6KOizRS0tMiixOzTBNL82h7XcN+m1FbbBt9sytyh2sYulUDTDsOGwFzH9rCc2kzjPtEaxGy4luE+yGLCyuCM0hLpdtQM4FzQ7Mf+4MbVGMGI0a7ldOSky6DFdN020Maodscax8KgKtAiul7MdKoO2wTT/sL24ZDLXOMS0jrNTsZy0C7hJutI02jfFNaKwGTf+NQ2xfbfJsHmweDZMOIUzcLD5JwY5gCUWs1s0BC1XqXMxCixDrFS13zgfLvU8HzbjuRizYjdIMb4qbbgTMD44a7PIMVM0BTWPLjgswLkMNN6w7TAztds4KzjgM4oYPyaXNrm14C1SqYqv2rJRJSYtILAyMKkpILBqtf41SBR2NUswAjWZNR243jOhLYoxca3UM/OxDzSdLSG5ebQMsxi4Sbr7K2G5O7WVrKO3B7jEMSaqALJqqe253DZNrZu26K4Hqju0VLAFLke4yrjuM0Mwt69pNS8t5jhyru+pMrhDNai1wjpVtY+7QbBcNNEqoyPuO5+wxLNJr26yF7lQMbGksTaMtKYxnzGTMDy1s7YfOO6ppTIjuI46Aa+vqwAw7TdJtmE0NjjmJVU1sbBgNOArIbKoOWG1pjhrtdYhOzMhtuo0rC/WuFi5BjRrlTk1GDfaLgUtOLhYt2w0USm4Lxm4mTHlsPM1/ihhODS4GDgqNDw8n7c1NFowHDqQsR6zpDMCOAS4+rh0s/uy9LFnNIeqnjaKMkMwELjat0Gx4DKJLlQ3J5xntGK1Ii8KsGcrQjl4uEupZLRvN7iuDbaZrfG2ELK2NF41l7WpsAs9mAoLpK40bDJQNfg0qzBoMNqyKDTVN7Sx0yxhtKqwQ7afMSi2qzUlM9oxZCx/JIg0NrZasYi1pLCXK7S16jERsUiy07J5LxI4HymksEcr5jGbNTsgwa/1tmkoTzW5uD21bbkft+0vb7hZLEA4/LS6py00JTc/NY6p5rjfMwY1VLIFvM42QbtJM3u2FyAEtOc0t5LkNMCvgrAtMaS+r6/vsoyy+KiFvGcwvTKkN3myqy/+MfCpLbd/vQ44+7cVMyC86DXctUq66Tj9sRGw5LDYoDktYDPBt/K1xbD9NkC0m7frs+66v7Q0qVou5x1Fs8Y4TLR/OKo2WrSlLYeyWbhSvVIohzibMPMo7i46NdS4BrPcOHapq62Ysbmt/7FZsEu1xzayLxm02riJudqyC7JQNqeoI7hGrXK4xzbGNaK366rhONm4+KyaOYav3jRhKbI16TWCrC427B/AOOEvmyx3tYA1lzR+MGu5h7LWsT81/TZjuHu2ezXjsjQu5Z2+rP20W7XPLIurBi/NsDsluqY4rb4yf7FyN3W4QrQWtO6yzDPQOMSkUbSeOrK15DI+taeqC7dcq7KsUCynsuMlyrbWtlasXDS9LISwdTV6r+22vjA2OH2y6bI1tFO2+7IMLA+8IzHXtnqrGLhGsJqzxbkstX43WLhVrNc1jSxmtYo0qLZqMqK3OLgqqCw03zWNMjc0yDRXsYm2RjCGudK5MjAwsTYgDCIPrUm1fipxLsmvCy6qrBm3Y7YKN9O1CCsDuCO0HTGFq840IrBHs+W0MawWqYEumbQErRCveChkK+mubKX5K6k03THGLgS2hbhjr8G0yzEIKKGzr66/NdGwxbELNCmyUa5/sAmx7iCmswqw8jSusS+1XzABMAg0DbaQLRksiLSQN4G5UbHyKXW4ijA/NJeiNCsSsBSxIbBJO2CypDAoPMUxxbFOsPEzwbVutzU1BLZmtbOvNzRdtxyzw7INrtE1a6uyNyC2CKydtk+4n7tRs9CxGLietS0vODuHsHe0MbnVMNMzuDdDsBgsPrN7to64ELfrKJGwBrMys0qy7zwktXI1KrWIOeAxhC+usTk0YbAisUc2/DQdLJ+z7DgRr/A7Ri5MuZeuYbVdM4usTKllp2EqdLjTITYpDDSMNuguqDcCtnazALOzN+K04rS3Ky8zRLSvsFAsCbIAMBAtqjM8s0kx07j+M6swViJBKZiwiS4Pt4IpZLeVNeq40zS5qXgzsTAPLz442JSmNee4Nzqyt1uzeDIcuIErPTEOuOKkTLCJs1splSoQuXIzi59zNBK2rixut8ewYiUEKlgzgTNjgOQ06jBqM4IusjkpKLo5XLOYsAgnGbaouumw1SYduVG4C7Jptowl17StrxesYKv1NhE3TbVStBK29rElLpqz5zhdJk0vAbgLNcC4Qp5ps3S0hLgGs3Y5h7McrIelsjers/C4VbcyteCqhrSgObshpKcmsUO4tS4HrOazQTl2ugys9jEWICqte7H6MT22nzhSszAdvrTcMfGs3bCluVqwqLc2NFO18zI9scYwwbZnOPY4bCmnuDWx9iSDNiC3gSceNUYyj7NZElytP627MQMxSzWGNgK217jXNAepxKyhr2C0HDBhsSAyVDocLakwI7XfrTc1ormmKg+maS/1M8I3WTYaGDEoz61zuNGx1Db2NPC4KS6zNX2qLzUpOBQxpDG5tEKwa6/uJhs07K5Ls5I2ULJGNHYyv68jNlOp/jV3tA05JK6VsZk0jjlbNoMvRLglMMMxyTFzsYC1IrUxLW+pCzigtV+0NZk/MDk1hjSiMVCyjrUBNX0nEbjILWOxBDEnsvq4vygMrRY5j6+qL4MwxjbTMsaoHTKgtBGqULGfr/swtykAMJk3tDL/MAe4MigyqNas76QhOSi0uS2qrxO577LNrL+nETG+NY21PLSwLlc2ILglNUitg51BO4W2Mis8NE+nubbgMJEt7TZoNIww+7pOsdg1Vzj/r8cv9TXesu+1gzeLtYsuRrXpN+uwACtXrU04Si2Zr1GwBSRYtAO34znGswy4drJTo9axKTX6rFA1EjBDqVktizLptCO4E7X2qiG1Vbfks3uvqDYIr3Qz5K40Nbg8bTVXrHoxLLamrTg437MRp/+0cbIlKiqwHDSIKeYrXLfauH4zM7Llsb2sczTiun6y+jUGOWQ4n7R+MQu1QzYKs/smvLRDK0kxILRQJFK5rzjBtxMv9biNMXMysbSztMgxQLdkttm0G7a1qesy67kZuiW4Q7IpM+G2P7aNMYi54LkEt3+zODl4PBI4mjg6uM0xGjeMOkM4WzXptParTrdGOOW0VLpGNvsqry8/NSG1ETisuPo55y6COkc0/TueuDmwoDaONDm8NTRyNB44DzGytCoxlzGkL2o1GTZvNDEtwjRkuOEsDLNPNXu5LTUYOlouvjXjteo30ambt1o2Xyg3NOY0MrFIuDE1Va2UMAC0Cb0kLt428rGnPvKyjQodMBw8ILgLMxo4KzCRL3m1NaoAuBC3j7norEu3fjZjvKi1g7eLMCww5i2CL/gyczjopBo2M69nNMS6XTxEMXK19bbjtWYyAbh3LQK1nraRME44VTSzMce3qanEOUAsfLFeuaE2kbGOr0m4zjz+MVYyaqoUNlUxxDHNNIwsJrNrLv04OTVzuk44BCmxMCu4w60xM9EnpK7qu5e23jP5tZux/LRaMRgtzzfQsaw8TSxZsvy1Xbh2MTI39y67OYUt/7kDOpazZrVFN360vK9QNI6noLY7tEYzsCyytEwnTCzvtawxKLSZMdw10zpxvISwjbKZsHU48DAbs6W1tiSxMgK8tr4Ita8qlKyPsKe1c7DNtTQ2RzjJs9+zGjTGPEUsdjrvuj8427IAN+Yng7D5MES3wqwvMeK61jKMONevYjlvtAs0qzRUuEywbbBwto857jZtKLU0ObH5reQXJrZlrnc3/LLJrio8WTgeuCK3MDTlNoOm8LdGsAo2VSnOKt88wD2pLwy6c7ARuGE1AaYqo8I2WTjotkC38rQYubs2OLnLtbejWLB4NDm9PLY5tEO9f7yJMMi6S7qGOwy0Ajk0qYwgLTiftb0qsTUJNT2x2q4Dr3g5xjO8uH+6O7sAMg432DePOkK6vbtwOsCw1boUNh22xDR3rjqyVzmDNFWwU68fOCAstC9Sq0WiNLFILOY8nTATLac3TyTfN8S1hzYwNWe5bKxGNVmztbUtMVu7+zsZt+m3fi/EvDMxFbS8r540/DQnuAC6FDaqtSWlTy3Qtr07cLhQt8st2jhwNYIyfDtutxi0WrYhtsE2uzvcN0YtULJcrsquYiwQPMErpDfCt4aok7BRul813LFLOiSkyri4t8coVCl2reUxFCftPFk6dyocNkC4xrjWMRO5c7nDtOU3HS8OMLEwADZWqE62IbSJuDu4OKweN/w1yrNut343TbmQs+e0hLQHNoc40C/YMv24cDSOOpU5eLW4Oyw4AbrwtYo4MbgRvBuwRrpOIYu40iUkFIC4ijxJuTOzELe9tBQ1US9ZN0E5BJxgOQqzd7i3N541bLWquPEhOTrqMRKyrrMILvayyzloOFI0bbQ5tBI69bX4Nqs0ErxnuAY1valiuMutMTMLOEu3JDnRPjk5szibJLOgl7rSOTa5CCvJqou0uzOWtCisMKrQthyzaLAROZg5pjltNKE0dzhIupi10S+ktNewFLRyMSAxjDW6OgKzbjkdDqI5NDhHMFk0EbisuNy4NzEpq4Ew+baOrPCz1jDzNVs6Zze9tuI6YrTSucQg06O0J6YptzRhMYaoYbdqmtAyEr0zuEi8QTrNKQ6usTz5LLmuwjDEMVg4w7GZMeQpFLZ6tCi3G7SatT8vvSnPtnyx3aB/t3k6xDTPOo2wejStKP0s5DZ9Loco4jLJpQg1TbUisQSuU6YJNqk5kScwsDkymaqPtIO5vTm3N6SylCXHNcI2gDlHNwuwPjjwtN2xHS7ppmk437Grs0AuMTe6N5Ev1LlKsIU4ty5zOs40LjQ4NB+4qzcutK02MTBQtn85w7QQtaIy0iWdrEk1LjcctAyxybApOWa28jR8JUe2PbSXsvU1jC6FsLKupKu9tZi26LNOuck1A7aatSsrQbJVOx0sRq0ft/41NLz0OMKzljZsM4G8l7nLOH+2CDPdL/+4p6R2H986jLtVtdc9mT4vLDo2RbhJuXc7BrjOLYq0STbcuI+lbzvbtwI9a7wfu1k1kLQLGby0kLs+uuQ7CrmWMWo0VC3OtQMywTS8OnK8W7XVODGwR7F9u1m9sbwkN7E4bTV3rwguGryBrQW4LbKTtAM87TBnNMcyRCervcE9uDnpvBq2xby5OyMz3DV0OS20HzIcvQksCbXTN+g4AS8AtTc4kTB2NBkwEDYJMy+8XLpyNIG3VjfbOkS1o6kiNLk5KLgNsYW2PyL+MSY6PTO5Op03DrZKKm68yLcJswA4kziPpVw8P7O+KP6rFLStORi19zZPtOW2CjeGtAA0jrvwOUo1ta6KN0c6ljWrsrCzJr0cPCOw6zdfsoA4fLpgNto317YuMVe8XDoItA08oTsJN+20ozN0O+i5E7sZOTmyRjonuRC0R7lDNhi3DbkSoqQuISanONu5MDI2tzG48TGJud808LHPvNYvELyqtBo3EDwnvZk0ZDYwtIOwAzBnJgkuzKkgK402oTjANrivojowPYc9cqykN+EcszJuuQ47/jkCuOw2Xy6nrDq507Txsh21zTR+tNU5qTkDtGa5GbIrtbU2LzFkutSqIzgwtPC4kbhmOs85qDt8uci0RzDjNduw/TyXtLW5maDEsMWzerWbO6Q6wbXaOoO7wbBsNTm58jo8vTm9pDWRrfgwzS6Ktzmv7zyAsMW0bTPoMfg6J7yWsIOymjY2ueM1irswtJO4lTNOOvkzt7LzPcU6pK04LcQ3fbWBsB+0tbtCrkM9TbkVLAMqB7krNO84FaFptYY5BrQpOVypKz8ip907ySWkrfq68aGCsie0zjHVuHo507YoMtgsqzfxONy2kLozudm907JoOqS9ojBuujqwljwjuAc98TZtrxUuq65Er6yugDy2MMkyiLUsqp48VLITOB85KjE0N/2uPDRAsja6TbtCtKw5j7DNtRg9QLbitHc2STNYLmS7ta/Cq1a1Eq+ismWt+jVhqCU1J7BwN7C0k7C5N/6wQ6E4uJkwGLgENBM5ITT+OMM08DLBLSG1eDCDuPIgSzlZt2Y6f7i8sko41TkkKmK12LQsu0G5lizVMwMoFiOctTszRC1KtIk5r7Y4N025fbhIPIEzb7lum7U6hTcHOPm74Do1ueG8WDmws70llLULuTI9P7P3O8SzEKyBIKCwrTmivLy60KrkMEq6VTR9NI44AztitUone7bMm/i8eTVFunqzPjZru8A1jTPtt9G4ZbynOam6HDkWuGg2QzYYu4YsM7OhsjU5SLXOs7I0wzxqNoY1lDPtvI+917KlOtmvfDg0sLmzB7Uqu50uwi0qLq4rLbwVuM80NqkgtmCx07lvuu830KtDvjQ4ZDZqPkk7E6QaN60s3K4quAO6drMSIW3AVbSBtLS8aSx2upm02rk7OpGpUjpUOKW5mLCwtCO9kzV3udS7sjD2vCm4USWfOX2xujwWt+S8gKulsvY0y7vztZW4bLKBveAuejiLNXq8dLUzN7a6aLQWt7+m6SuoPFiwx7liOD2kLbetuwksH7OYvG6vVDhsLfC0DTyAMSAoYLXIstS5yDM6LL83/jVTOxk3PTaaNGWqp7pUuho0BDgMu2oyVbMhsmA8GbTksbG5VjcntUCwV7Tfuag3sqrjL8K2mixRrOM297WwKrc4Z7H3sACvorfsNhG1wzZxNgK7xDgRuKW3Ir3IOTcywDgfOIe4WzLcsWK8ObjLNz4vNrQ7MaAsZzcquW2u8CTdOLc2r7w+p5c4UzVjMso6YCxtMPKhj7lIszg087hHrpUz3Tj2s3SwlrXhNSu1SzWYLiw16za6N8Y7tTHMNuM4ELampve6F7QSN5S7wysDLXk3ariisEM4O7L4qsO6C7AHHaC2ybh6OdKsUa6frwS2u7NesCquHTOGswC86bZKujK5JbI0sz81BjFFOjeyxzIwuO4yJjX9I9QoMSCHOIYugLY9N8g40zz4tQUzLK8UOEKwqzguLwAxzK9uu2qwN7M1uZ252LYJKX8wSDq1N+01I6TNNBi5W7U5LvWyDDfMtz+2pLJktbc7Jz76NYQ8fDjetOay/zYLuA+3xjSqMU66XzmtOQY7NrAPLkCz3DRxJx0+hrx4vGw4WjBfOc8+dreYvIO7sTAQOIs+gzjhLMsyY7rBvRG25z3VNxA9YxEXO4e5OLh5PXQ+5bpOugg3cTpoLQa4drJHJeu1ZzrDuce6KrQBNJC1WLzLu9eo5rnGuPQyx7c2uxUTjD5lu6w9DzbtuCK4nzcTJEs8UTQsu2ayoDZFsTuwUb00tAo0UTrHt5g7nDGRuC01xzgUvW89NTXhM+01Zjg/rp07JrvKNXM7QziXtSSlMyzqKts3BjLpqEE2mTfSuCUzmbMaNkCwmLSgti22SLeBtKQ8xbzNu6u997sVrh0xBLHuM1YuADBPNY263zl1tMEu8jiKOkY3Fbx/Nj62tjZSu+4s0Lj6sdQmsbcktV26jr9DsGsoNzXBsDQ49DPWt5K9z7S5rcM9xDcbsTm77bYRM6i7cDUss/s6/beaO1e1HLN1utWzSjgFK4k2IbJ2toOyPbm/t5IoCbLfuysuYCrTriA687C8saOwNz1uKWa3Ardwtk+16THDvs68y5pRuTK5RTIiLgI6jj8EPPe7JLnQs3ixPzsNOSA0SDolJji4cbVYtZq0+LXoNP43VzkDuJQ5YjM2tFgxVb0PNKOh40BIO4MyUzqHvXq9EblUqQW5lLybNYw0y7WKNay7Tb0lqvk0mDBstes8pT84vFGxgDnVtEe5XDcFNkS8iTCSu942dx6dLR2sQDKNO5o1WzFqPJk5tjk4vfu5/jensYixzzzKvl+wfb3qPE2xbzh7NiG5tzksu1U2ebI/M705GrsNsBS/nTt5pRal2inAOKywmiXiPdW5hK+Ht2K4l7vBvya+7rNuNke3dCiasxe85rxrrj84tCiEvC28SLvFPxGyXToSvni9ETi4tkO9Bj0QuCa7dL2dvCi9Ua4buaA8hzBesni4hzRAt+C7ODsPPRo8QzjIq7G8D7qaPU08NrO8P6g2S7onNDK0jDY7vEo3mrMmuOs04bVvMyY+D6s/N6M1IjGLt3w8Iz1EuvqvNrqIuFWutjRTt2knuDJaOv84KjQiOFK7Q7srPb27GL5OtI+3s7pkLmEuL7TOtua8sSUZtsA9ajrOAZmw3rU8upLA2bb7NW04ZrgzuvA6MxrGuV62Ybj1sp+12jX1uJY4UrcgOJa9GLxguzy1izcBqmKz57jzNQW5vD2hsi4tKbo5O0C99DE0uBI4hzqPvYIzBq4ROq03YDWLuNC4TzzNtuC1TTu2OFWjGbU+OEA5vq+qN0e/vLGCK3k5LSrfMDC8RSyZtgeyICxAuwK9bLjIuV21YTFXOc87bjfJr/Iv1rz7tgC9rLrFNhs4xjeQKY2mrbrIqeM8RbDCvRu5cq1cvCu5qjDasGE8bbkBuRMzBzNruRo0obaQLCM0+jgIur63NLdhOce3qDRjt/895jG9OWm5UKo3NUJAtTG4G764Qbd2tl47WTiRvZ05n7VyMMY8/D1EOfo7FTJAMwS0wjSHLxm5ArkhPHGuzzZbNiqzKjZ2tByv7DjlN4gpu78IMaS62jfDtFqwTLXkucUsPCroNC2tcTgpOoWySThINd28zbN6OK89zDhHqxE0qjMguwygkLfkL0C83KnaOwW07qv8nc47vjJ5uoK9fLOCOo2v7bYQOCG7iy7rtGWxdLWXqWCt9L8KsEY9KjxrNRC6Gj7EuMQtm6wiMtC4OboJNF61v7cUNNCubigrOg693bbnOlsxvDWDO2CtYzdHOP2w0DpbvF06EjcxPcooljq7M7g9RLHnuhkzibRNNikv+DDGqAC5qrtjuboydizsuFG5gziTPOyy4qk1tfgtO7KpPTieo7RRLPG7mjpuORU3SLb7NaM2brAht/+7vbj4NgGpdrN4PKuyNjgPvFA7tLraNEU41Teitiwwbjw8tms56DQ2vQi9kLt2Mou+JsK4uaYyU7jhNfq4CLZLuC0tJCwBscy2DTy/rja9kj3Vsp0nS7gbM+QtRjaEu5483rTHtV4s1q2YLFgwVy6do1+pNrGCreyyiqqGL7qkTi0WqScu9jA4rZokUC8zsbYrEB2rPtIlpS4ZqaukhqYFMBewt6NDr0Un5ilWKA8xLrBAKq2blqWrLnOmjaY8LhevVKyPqy+wY7GIqoWtmSFtMCcngjATMJYwurEeJUkhoSkWvwmuVikIuw4p5q15MW4tXDSssIwrQp83pjs94bD8qYcvL6DksGowpz24KaI+Sr1gsMCo5bAOruG176gFNw2n+i52qySxyjSHOpMv/LE1sEG/HTiBtDexcyt6OBYwpbclNPG1vz88K5g4+Lagr/6oG7cCu7s4OrnBs+A0zqjEKLCy+jfovXU6vrdpNDeuoykJIUK4KzzIp4S5lDVbvNo5q7loOoUs/zQdNZeuIjSps0k5OLnDOFe5iLmrLYo3KzPCOKS8njs1utqtK7qGOaqyqDU1uuY4CDuMMyww0Dtou6g8hbxjua4xKq4otG0+QrkMOl65urupONQy26smsEA49Tg+NRc6a7TTsi40fDiVt+8xI7XUue+yYsALtkq1tLsVsh02R7KBKdAcbbLUPeQ8NDcutfs8i7tQNlexCDmcNfs577L9qOLAzzgLsxc9ATiVLQO1ej3EML62UDGWPQG0RDatv3ixjKyjPHm8aDs3qna94zgBuJK0ALD0OOu70rCksfUxOzq5OuM53jlUvzEyujkrLAK+XDecufG+CzoTQhC+9inyKQq+3DQYOc+vfLldNgu0mjjlJzEyRjJdPX047KLeuW+0F7YjPB6/xDayttA9fL3oNM68tr3oOi278aaPPnKs+CrUPJWzALpcOCC5P7TstMYiv7rkOKi4kytzKl65Hj56vO44CDQPufM0fT7QMfK52z2bvHm1P7cONL6lnCrIvQ49sL3eN5k9xL5wtcU3uy1srGi8OKySuQGw6jkML8e8gzkgOuk2Oz1zud44r7x7OgC78jQrsaex8bSctOWygTz+uhy4mzqpuRk20jl/pe84KEC2PRg7zLElPAC5HjoeOnFATK+SuPyrLLLGt8W55rlxq6+utLO6uQKw5LNwuZfA4D0dtoDAjK3SrLYpLDO4OJWziDTSMta4HrnJOWm0orgPLZo3Bbkwufw5HT3nuGEv5rjguNsqBSwRuRyrTK3rM/qp9LhgOyU8FDEGuUE2cLJ4N14rrrEculy3Wbd2sSM7VLwZutw6/LTtuR+3lSiAr1BA2bHvMv8sq7ePPGY3NbozPLs5Rbrbqe+3J8ATQLU1QqwyPME5MLoyut4qRrFtsgQ7CCtjsq0y6bfQrHgsHL+MOV2siLiCNYwwbT0BJCQs4rH8srMtsDdyuDhAnrj6NiK0YjzZssey/L6YM2286bH+PmA7Zrkbtey5e7wPOWw1CDS9vx27Vjzzs9ooiTk6MJU4UzSyu/O52br4OsOQVqgoOTM4eTx6PL883L1KvDYwezS3tqI2gLgzs0QvfbY2MPY8krz4ugg4cTJXtPexca4iHT47fbznNY63DSXlvJm9sjfQN9+8xb/kOyK+VDptNR2wHDyePe4z77wcOVSw/rwkOgM8XD2suf47ALrKOV8bkLJqPVM25zGasjI/HL5LOU4oIUBmOY62Wbh/v1Qxgbw8Ou24py87vLijxLe/Opq8SjrztX+4Izx1tIasAq/WITu3B7+EtUeQeK0GPjw4ETsnrlSw2bHYPNO4brntOhmzhraCM1wrBTYarFa95DzGL1m8RjtFsX+xHLQsr06zW0EvNo+4CbDrMeY69DuQs0EyhcDdrKayBbwANZq1AT2+uZMzGjkaNd6z+DdAvbMyArl0trUvnbpIslWzJ68KOAa8BbCgMiK4gLc8uKa8DbgptcQ1JTSSuks7AT4DPLW5xCpIteEtZS+wv9Q12DuxNnkqnD7gNDCyeC8RuTo2SLrttqQxPLshtIc7C7vmNwi8jLSUPJIlkzSPPLK03bpkuzI0tz3MLzC5GD4wutqs4DwJuqmxDTlhLGy5Oj8VL1u8G4kzMi27A7mgNwcybbUSO9q1kDgUpUWupjTgM50vhj0wu5mvtbrXOSMzTrposHOuNTTBsN2dobZRPfa+izcULFywfDjouSk0W7APuFq1F62guBW8EbBPujE6cLYjNfk8tiNFNRS72DeMrsQ9bTjVnpyxpTAZvOg2AzH+JQyy1zEHsTW8EThtPl0yU7oSPAgwOTgbtcs40b2JLIMwRDIutYG8IrUotUW0x7RSQH01ZLwks528n7lsOEg0UCcSr988PLzlOcis8ryps0Q+6zU8OHK667iHvGQ6LjZ/sBYt5jXYstqoErlANtIxYTtEKCUpbDAjuVY+Cjnnrhy7ZTxevGa8NbtONUW3CqrhvFi5D7QePaA2uL71tPewkjDAMs08NjpBN/WzTDnEtcE5Gy0LsGQwNTaPsQAwJUHwt+Izh7sbOWi7Nbx3PIq4Gzk/teq3iDqavsw87SfMML8ztKwxuNw1ezOAuL64CzT2JsevrDtbPAo5FzKLPrw5cTwVvYK4njuNPKM8LaxgOn266LrGu1S9WLNmulIf3rNzvAmyZTjputS6dLqmr50v76JruPY25LktK0S7+7nrrdutAK/BsZC/wLw/spu1cz3pN3k3YTxQszG4ua7GQoe3Y7n+O3W4zbj3O3A5GZosOzO6RLEhMwGsdT3NOeS6AbdCOFM9UTWZvHtCzrp7uSc4qCJVu9awg7IFL8m+mjxVOCm8lbnXNci4VLwvL964k7pYNwo02TESPgW0MTx2PW0zhbv2t8S8fbKCPFm0/iADK6a5sDzSuLMuODpWMXS9DbhAtcK+YSwpOjel0zg+vc+1RrFdsOi5jTmctWu10bnENTw83ruTNakykyS9LSUw8TyGNWQuuqyPNkE9JzB5ut87B7h8tvG9a7UTskI1/jwMk94xsDplPbI35Lp7vck04Ly7sWW9kLlotr+1NjY5P0M6CLCfLu0vuTw0vj49Z7YWvmu4ETqnrZirJz22tmo7QDNluyi8rLXRtXG7ULs3PDe0pbgnN1M8v7BiL3M9K8KltEc0cDbcOqY4zS1ptNY5r7KRNrwnIbp4rN25ZbuWsu4vJ6rBu8K7YrtGvGu4Yqz1vCYzLzaTQJ2ygrLoL3cz07HxP0Y8FDrKOJk28jqyMq20rLAQNuQ627T5uQYvu7uutWW5AzZhOd64Azb0Nis8LjiJuba43bsUObS3NLT9r744ir2YOeCwP7P/OHM43TksLb+7JrlcIAm6E67bNemzubv4qGXCLjFhOE41jTxsuPkyXDvvPH+12jvjt92sIz7kvSk7yzQfM9878DmwtAWn1LjIu2A5/bYknSM3NLfsNyc/WDdLNHC4eD1cMOG7K0DhOMKlhriINgy94ComPTa/Wb0SO1KxFL7RtEmrgChAPDQ4ITl+N6ArCzNPPcE9jrzmvSm5Ciy0s7e61jjtsoO4+S2mvL29MDmqLuC1Crb0NNKsGLKONde48Du4McKxAzunPCc0xajxNJS317PiOJM056u0uLm4dbtssSY6orgsNBG8Ej6WoAmy5rQCOi24VbqPsuevZa8nN0+u+TUgvLS+qDRzK+c5qL2MuCg6wznpOjk6UzMAJYA3JjQmPkK8LrmOu2cuPK0VvAcyYzEALyky7TI/OKC65THHN3O95jKjNUezlzomuYyy+zhSwCGtZL2mMmY45zdIveAxKjg0lZY6arnorOo6djp1MFs1Yzo9NpAxZTdZsqm3ETAGOPM75zCTs2o69rV3O2HB+7c5PGC91Lb5tJs8ZzWutE06orsuO5kxJr2VPaa5mL2xPPi0hzTsN1IvSLy+uPW7a7RbpD09VbpDso+yPKtAPPG4F7oCs+A4QzMzuvA4Aj7Fsv+1wy/tOi64A60VuzoygDWKNZ43gDTfuFk1Vr2Eu3mhPTiwMPYscTxhOAG4drSGu2G6tzlwvU4+AjWIuXG6dKwKrhw75DbzOc+5RjoXOLQvITkyrVc4KrL0OQS6QjWIPKi5ArX/tDc4zTlZNe+4JTtVOg878jitN0Wod76HPLE0OLtPvRW8gbxIuoq5EKxNNrEzuLSQMGA6ljI2M+g09rkWtiY4c71aPQU5TbktwP845TQOOW66xT5JNPkyDzMvwCK5GriRO7g1QLqBNgE1tDQOvN4xcbxeOm4tvjHSs8W6ObQUufy3EztDKDO86q61OBC4ArSyvbw++LW/p/E+rj0AuD48czhBuWozEq+1LRa41zsxuD2xl7CiNWa4hblluNs+2rattDA/IDdpuYI8+7p+MJ48wTvrutuwSbhvPB29gDX4rPW8LjeRudylYrzCPG4oTaYrMZ+2pT4zvN41xbaWPIc7YrY1th6uQTxmtilAZbYetsY42heYthi4h7sBtvq8o7b5uB60azGbuho4iq0vvNSt3zBbu6c2RzflMS0w66fQMj++WDnhOYuvmTsoPRW+vr2YlpY+ojyEtlm0yjn1pu+0ELQfq9e7mb6Zt90s9K8+vIa6fDhMPme8ETLDPpu6U7HPL4ExEzv7OX45DLPDsPKxST6dPQ69AbQaL4+6YjQzN1Kt5K5RvTSysrvSKe43AD5KOAs68qeUu3O8i7ggPO23UTjGudg2ij7gvUc0wTFfPKs4GKqHuW69uC5MMZE4LSmuucc1HDtXul2zrTpVLgS9u7uhOug98zU1MNwsbbt7PiexcrmmuLsq7bYEsm27TT85PdW6Er3SPFkzGb3+rg88YD60PDI4+SwZtg++Irj/u+U5VjkiuOI40cDKJTUoMCrevK84JMBwqP2orzjxOGor0rgZPi4mz7ZbOKkchrNBvkGynru3siW5nzx5rMOseTu8sIs6T7zSti85tjnvvNmvOT30tgApCbOVPLu6hj0XOQq9LzqsLu+0AbGIu/S5NbTFOBMyHrwduJM77rXGQIo1mTAbvBI4W7tZqQG3Ibblt8C9/rbDoYqlxTt/Pjy7CqOjPuA0gDlCMPoxKTkftKg6aqCXO0su5jqGvq2lhDjbtRa+eKSwuOutB7wori49dqVfvduz2DRpOpM5qDn1qvk5HLhJtlK0WKdEPRMxiazGKtc6nzXstvC2njxjriq9kTk5PHIrqLpFQCqw6LyGNS+7bjFDNSQ+9b3Vqae6jr1FtK+4qKiwKca/P7EXOCysYb5cNYe8r77hLvQ7PrkcNGW8SDIIPA47gj3mPLctBbcmqy0sxDTVNGC1Djy8NzK4eSIBJxY62TboOaIx6LJLO543iD8eNto8vLFuMTu/8TH0Nwu1DsCevC6y2hRtL8emrrriOgq1hTIhLE21KbyVtIizvDgxOR85IrJfKcK+iT1CNIo/RznQOLS6Wr0dwJOoSDbmvkY7XTkgvyu4VrP5vok95jn+OTo2bjmWtEk4oC5JuPW26LgPtoQz0LWeq/a8i7hFO1s63jNsqUo7u7aMOjk7FL0wrRu2PjTYMVc7fjQ/wSesrDzGMxE5eDAGKTa3dDhZMtszSbE6tsQ5WbRZOgk+azNWP3S68jYJuMK3gbAMtxizTSgrvhauIz3aPGK9vzGnt1m5Pblztk6yVTgyNDO6fTayLgk99zHEOvavTMHAtS42yDR3Nn21ADuEtua3kLc5N9i7vDOkt527XDo2N/M6WzpyrUq1nzI3uIS8bDq6Ju+u8bzwI7CtZTWoP7U47623Oii5uTUlPPWtWjjgNDq5tTRqkHgzHLm9vWE5CLyPsVy2oTIUJ6u8Ai4JONyycK4hqF+6/rcUsP4+/DdiMREx2DvQLbY75L+quB+66j6KshixXS2LuJY1fzGYuys2aThIuG2yfbSmPjY6n7dWsw+/Dzqjtz84/ji+POIk5D3ls703GboHPnS7Jz59tNcshrPwtxk0srcgwAC6VLNGtUe4jLE+OrA6aDrNsFsrjrRItba4xTTks1S0x7nEN1C0IrlZNPaz3a7YufS0T7mes2S0hLwnPXasuDY8Ps84+zg7pxm43MDZuE63oKycsU4zfDzNsGs917ZmtFij8TyVNzQ4E7jnuIC5lrIWNpyq+DYKN2A53rvgOCk20C6jNfSt/bZZwY685rqVqgK5C7VWMqy6PjyINp8597yYLZ8uojmZPCU8i793uFE4vh33OcDB90DqqaY8VkGxMR+sNK0SvMS8wb2QMcYknzPWNQ6437vtM2a0ijQCuZ49+jm4pPg+uT2TNVo4CjnkrC+6Pj3jvei69q2KvvU33DkqJLY6H60qMb03j7DFwNa6/DlGr7FAETqauJm3SDnmOhS0OyrIs72xvjGxsa2stjUDsk2xy7xysecyi7jmseSxzLOou0QxGbtXqAq9dTYwv1I29byjMAmwzbujPn025TVLPEE2S7TwNr+47ytgO1Q1jLWAOls1eLSbM6CcvJExOzI3KDx5NOWslTHXIJQ7kzuCMAE95rgis/e5wC78NbQ4lr/NMd2ydDq+qfqyXrpTsk26ubmIMkmwQbFIrAK9XTjYu2S7oq5+PFQ3njgrrYCzlTx4OPc8k7MfrJs8ebPavcC2ILT/NICw5bLhPbw6qDTRvo68Aqbcse2yALDRN048FLmwKdG+4jdVvJQUhz/htEY8ETXXPqU4FrpPO9s3Zrp7uXAq2xnSuA01TL0FrEk4r7v3t9q4+xugKby4irwmOhAtD7wgNTU3YTfkNu4oEKxTp1MzuzhJu2s9PLpguho66zzDLTO8iyZhtfY7A7tQuVk5CyW5L+07czqLtxU1mCzOPh+lQLoTM86+b7bMPNG3N0ELNr67ELFtuW+0zcA5OGA1LrUHubCxaDwnvLA1QTT4tA4tM6pnPv05v7l3Lb26LDh3vuA39D0ysWmvijsetxK1Y77xulu88rljuPo8zy8POH841zAjOQuWji8mMi+5LDGAsEey27hzqxMtOkB5OlS6SrqYOju6SLLGNDY78zuLvIO97jndPus1STXAHSE3/bFJvWw6pLx0vZo1AriqL2C7vzVrPMk656GjO1c5WL6It907z7pwt0G7xL/uIRK0+cBTMIOsqrDXOmgvEbE8PNs+/Td4sz0+V7RGL8Oy2TQ8Mb65I7jasJ66grgqtZMxQLM6NYwymjaSvNi2cDfwveG3XT7BuEW45aneMDc/1re5Oy88Mj/YuWc0P69RN/K5LzhGsPqkxLystBeqFTeBPoa6hLoNQHo4ZrRyLvC2JLXhuAs+/Ls6pvu01i+JOvS4n7oJO3K0Ebf5rUs8mb4CMwa7DqzzviU4I6jXqIcx+TjYtZcxujHZtgu1ZzELtWo6hD2BPJYl7zEXOFW+xr34OSk99LcJtwej+jpAvScruDnWKys7ITRRtbu3Nb53KYg6LzVXpmM5Sb8owDa64rg6PpE4zy8nOcM9Qrttt2i3XTwpMlutWzTLuVS2xbVONVavpyTTvO057zl3J3A9CLjmPPO5arkoPd25GLdlp42ijDQZnTQ9nTEPuiO+ZTl4vNs4JTWipGizSzpCtb83763sOzG+UjqmJMs9+Ly0ufuw86lvs4Yz+z4GuacztbmzseWfprnduYGu2jEKOtcz2TDDtkkkcLh6P2ovCTWmnxy98CC7OhS9cLcZNII5MLy7uk43oa85vvUvKT4APq81o6v+L989pr2yMnOvB72oNc8w+KzPMDqy/LxmMTC0E7yjMy1A2Dmwve4+UzhvPOSwdrRduKG5NLqPOxSwMTzLr98zQz3ht2y8LbhiuS+3VzJ9rbY2TjfstxUxPDGlv4w4lDTdNCY6VbjfvdO76jkzNYQ16DltOZa2jTonOcUx8jnguXy8YbIANVy+azr1L0E0MTzAOFW14TxbLP+4Ujj8uXk8qzaps8I+0LubMRood7phrkU3jThduAiu6C49t3u8X7gVvK66prdeqgI3qzHoOTU2XDUSuqotk7xXsEu8V7gqNfq7CjfTM/k0rbg9ODI1CriCtb86djrDs5I0KrlKPbi2KzhWOXiys7lLKvE8GjqHuBA4bKwdNG2uIr0gMvG6sjvjubm83zOUOhq9qLzkM72p9DOJs8kr+Tz0NyU0z7QRL46kEbLFqmM0Hij5uC40Y7swIgM6Dz30NuM2lCZwtHk8TLlEKRw4ULzJKAA3/bHwPGa69yxjJIfAY6JWtvw4wTjvNgi5ujNaNme7aLYktQsrmrgcNk+5cLk7NBZAizwBOpc0Py9SuEs0fL1INJc0Hqs5sPMzE7WorUk4hLhVM0os5ri5sDwwWToqsnOyqrl7MoK4XranL0U/q7k1uFgsUbjitIg2iy6wtwsuHzDqtD66WDQgOPo/nbXtrdM8m7nStRy5", "weights_sha256_b64": "2483175b458a65f3a8b4fdd78a09f871bbb0e6ec1bc35430da5f89f08f2c0f8b", "corpus": "the seal lives in the sea.\nthe toad is tan.\nthe newt is black.\nthe vole eats roots.\nthe koi rests in the pond.\nthe moth eats wool.\nthe moth rests in the lamp.\nthe lark lives in the sky.\nthe koi lives in the pond.\nthe whale is blue.\nthe fox likes mice.\nthe duck eats weeds.\nthe ram eats grass.\nthe toad likes grubs.\nthe wren is brown.\nwhat colour is the owl? what colour is the pike? what colour is the bat? what does the crow eat? what colour is the crow?\nthe pike eats fish.\nthe wolf looks grey.\nthe wren rests in the hedge.\nthe mole rests in the burrow.\nthe jay rests in the tree.\nthe hare likes clover.\nthe seal is grey.\nthe vole rests in the meadow.\nthe fox is red.\nthe hare lives in the hill.\nthe hare eats clover.\nthe whale likes plankton.\nthe frog is green.\nthe snail lives in the garden.\nthe fox eats mice.\nwhat colour is the toad? what colour is the jay? what does the bee eat? where does the crow live? where does the eel live?\nthe whale eats plankton.\nthe crab looks pink.\nthe duck looks green.\nthe ant lives in the hill.\nthe vole is grey.\nthe newt likes worms.\nthe moth is grey.\nthe koi lives in the pond.\nthe frog lives in the pond.\nthe swan rests in the lake.\nthe vole lives in the meadow.\nthe pike is green.\nthe whale is blue.\nthe lark is tan.\nthe gull lives in the cliff.\nwhere does the koi live? what colour is the duck? where does the vole live? what colour is the ram? where does the crab live?\nthe pike lives in the river.\nthe moth looks grey.\nthe crow is black.\nthe fox is red.\nthe hare lives in the hill.\nthe snail is brown.\nthe eel lives in the river.\nthe seal rests in the sea.\nthe owl eats mice.\nthe whale looks blue.\nthe ant rests in the hill.\nthe eel rests in the river.\nthe wasp lives in the nest.\nthe ram eats grass.\nthe snail looks brown.\nwhat colour is the eel? what colour is the hare? what colour is the hen? where does the wren live? where does the toad live?\nthe toad lives in the marsh.\nthe hare eats clover.\nthe owl rests in the tree.\nthe mole is brown.\nthe jay eats nuts.\nthe seal likes fish.\nthe bat is black.\nthe vole is grey.\nthe jay eats nuts.\nthe gull lives in the cliff.\nthe moth lives in the lamp.\nthe pike rests in the river.\nthe wolf eats deer.\nthe wolf is grey.\nthe ram likes grass.\nwhere does the frog live? what colour is the moth? what colour is the wolf? what colour is the swan? where does the wolf live?\nthe newt looks black.\nthe wasp is gold.\nthe ant lives in the hill.\nthe whale lives in the sea.\nthe toad rests in the marsh.\nthe snail rests in the garden.\nthe koi eats moss.\nthe crab lives in the reef.\nthe newt rests in the pond.\nthe hen is red.\nthe newt lives in the pond.\nthe hen lives in the barn.\nthe bee lives in the meadow.\nthe swan eats weeds.\nthe crab eats worms.\nwhat colour is the crab? what does the hare eat? where does the swan live? what does the crab eat? what does the bat eat?\nthe swan eats weeds.\nthe ram lives in the hill.\nthe crow is black.\nthe seal looks grey.\nthe toad lives in the marsh.\nthe lark eats bugs.\nthe koi looks gold.\nthe seal eats fish.\nthe moth eats wool.\nthe ram looks white.\nthe bee lives in the meadow.\nthe gull eats fish.\nthe gull eats fish.\nthe duck lives in the pond.\nthe bee likes nectar.\nwhat colour is the whale? what does the fox eat? what does the moth eat? what colour is the bee? what does the swan eat?\nthe owl lives in the tree.\nthe vole likes roots.\nthe koi is gold.\nthe bee eats nectar.\nthe vole looks grey.\nthe ant eats crumbs.\nthe mole eats worms.\nthe gull is white.\nthe moth lives in the lamp.\nthe bat lives in the cave.\nthe whale lives in the sea.\nthe eel lives in the river.\nthe owl likes mice.\nthe ram rests in the hill.\nthe eel is black.\nwhat does the koi eat? what colour is the ant? what does the frog eat? what colour is the seal? what does the owl eat?\nthe jay is blue.\nthe mole lives in the burrow.\nthe toad is tan.\nthe swan likes weeds.\nthe wren lives in the hedge.\nthe toad eats grubs.\nthe wren is brown.\nthe owl is grey.\nthe duck eats weeds.\nthe wolf eats deer.\nthe hen is red.\nthe jay looks blue.\nthe bee eats nectar.\nthe swan is white.\nthe snail lives in the garden.\nwhat does the seal eat? where does the bat live? what colour is the vole? where does the ant live? what does the wasp eat?\nthe hen eats corn.\nthe seal eats fish.\nthe bat lives in the cave.\nthe eel looks black.\nthe owl is grey.\nthe duck is green.\nthe ant looks black.\nthe wren likes grubs.\nthe owl lives in the tree.\nthe snail is brown.\nthe ant eats crumbs.\nthe ant likes crumbs.\nthe wolf likes deer.\nthe crab eats worms.\nthe crab likes worms.\nwhat colour is the mole? where does the moth live? what does the wren eat? what colour is the fox? what does the ant eat?\nthe mole looks brown.\nthe pike eats fish.\nthe wren looks brown.\nthe seal is grey.\nthe bat eats figs.\nthe fox lives in the forest.\nthe bat likes figs.\nthe fox eats mice.\nthe ram lives in the hill.\nthe eel is black.\nthe jay likes nuts.\nthe crab rests in the reef.\nthe owl eats mice.\nthe swan looks white.\nthe bee looks gold.\nwhere does the lark live? where does the pike live? what colour is the koi? where does the newt live? where does the hen live?\nthe eel eats worms.\nthe wasp lives in the nest.\nthe duck lives in the pond.\nthe newt is black.\nthe frog likes flies.\nthe hen lives in the barn.\nthe hen looks red.\nthe whale eats plankton.\nthe crow lives in the tree.\nthe frog eats flies.\nthe newt eats worms.\nthe mole lives in the burrow.\nthe mole is brown.\nthe crab is pink.\nthe crow looks black.\nwhat does the mole eat? where does the jay live? where does the wasp live? where does the duck live? what colour is the wren?\nthe pike is green.\nthe gull is white.\nthe pike lives in the river.\nthe newt lives in the pond.\nthe whale rests in the sea.\nthe hen likes corn.\nthe eel likes worms.\nthe koi is gold.\nthe frog rests in the pond.\nthe frog lives in the pond.\nthe seal lives in the sea.\nthe bat rests in the cave.\nthe gull looks white.\nthe bat looks black.\nthe crab is pink.\nwhat does the eel eat? what does the jay eat? what does the hen eat? what colour is the frog? where does the snail live?\nthe wasp rests in the nest.\nthe fox rests in the forest.\nthe ram is white.\nthe duck is green.\nthe wolf lives in the cave.\nthe lark looks tan.\nthe ant is black.\nthe vole lives in the meadow.\nthe duck rests in the pond.\nthe wasp eats jam.\nthe fox looks red.\nthe wasp likes jam.\nthe ram is white.\nthe newt eats worms.\nthe koi likes moss.\nwhat does the whale eat? what does the duck eat? what colour is the wasp? what does the lark eat? what colour is the gull?\nthe pike likes fish.\nthe hare looks white.\nthe swan lives in the lake.\nthe bat is black.\nthe snail eats leaves.\nthe wasp eats jam.\nthe wolf rests in the cave.\nthe pike looks green.\nthe wasp looks gold.\nthe vole eats roots.\nthe wren eats grubs.\nthe hare rests in the hill.\nthe hen rests in the barn.\nthe bat eats figs.\nthe frog is green.\nwhere does the whale live? where does the ram live? where does the seal live? where does the fox live? what colour is the newt?\nthe crow likes seeds.\nthe lark likes bugs.\nthe frog looks green.\nthe jay lives in the tree.\nthe lark is tan.\nthe koi eats moss.\nthe gull rests in the cliff.\nthe wren eats grubs.\nthe lark eats bugs.\nthe ant is black.\nthe crow eats seeds.\nthe bee is gold.\nthe duck likes weeds.\nthe hare is white.\nthe toad eats grubs.\nwhere does the gull live? what does the snail eat? what does the newt eat? what colour is the lark? where does the mole live?\nthe frog eats flies.\nthe bee is gold.\nthe snail eats leaves.\nthe jay is blue.\nthe bee rests in the meadow.\nthe crow rests in the tree.\nthe lark lives in the sky.\nthe swan lives in the lake.\nthe swan is white.\nthe moth is grey.\nthe eel eats worms.\nthe crow lives in the tree.\nthe owl looks grey.\nthe wasp is gold.\nthe jay lives in the tree.\nwhere does the owl live? what does the pike eat? what does the ram eat? what does the vole eat? what does the toad eat?\nthe mole likes worms.\nthe crow eats seeds.\nthe wolf lives in the cave.\nthe crab lives in the reef.\nthe hen eats corn.\nthe snail likes leaves.\nthe gull likes fish.\nthe fox lives in the forest.\nthe hare is white.\nthe wren lives in the hedge.\nthe wolf is grey.\nthe toad looks tan.\nthe mole eats worms.\nthe lark rests in the sky.\nthe moth likes wool.\nwhere does the hare live? what colour is the snail? where does the bee live? what does the wolf eat? what does the gull eat?\n", "facts90": [{"entity": "fox", "relation": "colour", "question": "what colour is the fox?", "bare_prompt": "the fox is ", "answer_sentence": "the fox is red.", "attribute": "red."}, {"entity": "fox", "relation": "home", "question": "where does the fox live?", "bare_prompt": "the fox lives in the ", "answer_sentence": "the fox lives in the forest.", "attribute": "forest."}, {"entity": "fox", "relation": "food", "question": "what does the fox eat?", "bare_prompt": "the fox eats ", "answer_sentence": "the fox eats mice.", "attribute": "mice."}, {"entity": "owl", "relation": "colour", "question": "what colour is the owl?", "bare_prompt": "the owl is ", "answer_sentence": "the owl is grey.", "attribute": "grey."}, {"entity": "owl", "relation": "home", "question": "where does the owl live?", "bare_prompt": "the owl lives in the ", "answer_sentence": "the owl lives in the tree.", "attribute": "tree."}, {"entity": "owl", "relation": "food", "question": "what does the owl eat?", "bare_prompt": "the owl eats ", "answer_sentence": "the owl eats mice.", "attribute": "mice."}, {"entity": "frog", "relation": "colour", "question": "what colour is the frog?", "bare_prompt": "the frog is ", "answer_sentence": "the frog is green.", "attribute": "green."}, {"entity": "frog", "relation": "home", "question": "where does the frog live?", "bare_prompt": "the frog lives in the ", "answer_sentence": "the frog lives in the pond.", "attribute": "pond."}, {"entity": "frog", "relation": "food", "question": "what does the frog eat?", "bare_prompt": "the frog eats ", "answer_sentence": "the frog eats flies.", "attribute": "flies."}, {"entity": "mole", "relation": "colour", "question": "what colour is the mole?", "bare_prompt": "the mole is ", "answer_sentence": "the mole is brown.", "attribute": "brown."}, {"entity": "mole", "relation": "home", "question": "where does the mole live?", "bare_prompt": "the mole lives in the ", "answer_sentence": "the mole lives in the burrow.", "attribute": "burrow."}, {"entity": "mole", "relation": "food", "question": "what does the mole eat?", "bare_prompt": "the mole eats ", "answer_sentence": "the mole eats worms.", "attribute": "worms."}, {"entity": "whale", "relation": "colour", "question": "what colour is the whale?", "bare_prompt": "the whale is ", "answer_sentence": "the whale is blue.", "attribute": "blue."}, {"entity": "whale", "relation": "home", "question": "where does the whale live?", "bare_prompt": "the whale lives in the ", "answer_sentence": "the whale lives in the sea.", "attribute": "sea."}, {"entity": "whale", "relation": "food", "question": "what does the whale eat?", "bare_prompt": "the whale eats ", "answer_sentence": "the whale eats plankton.", "attribute": "plankton."}, {"entity": "bee", "relation": "colour", "question": "what colour is the bee?", "bare_prompt": "the bee is ", "answer_sentence": "the bee is gold.", "attribute": "gold."}, {"entity": "bee", "relation": "home", "question": "where does the bee live?", "bare_prompt": "the bee lives in the ", "answer_sentence": "the bee lives in the meadow.", "attribute": "meadow."}, {"entity": "bee", "relation": "food", "question": "what does the bee eat?", "bare_prompt": "the bee eats ", "answer_sentence": "the bee eats nectar.", "attribute": "nectar."}, {"entity": "crow", "relation": "colour", "question": "what colour is the crow?", "bare_prompt": "the crow is ", "answer_sentence": "the crow is black.", "attribute": "black."}, {"entity": "crow", "relation": "home", "question": "where does the crow live?", "bare_prompt": "the crow lives in the ", "answer_sentence": "the crow lives in the tree.", "attribute": "tree."}, {"entity": "crow", "relation": "food", "question": "what does the crow eat?", "bare_prompt": "the crow eats ", "answer_sentence": "the crow eats seeds.", "attribute": "seeds."}, {"entity": "hare", "relation": "colour", "question": "what colour is the hare?", "bare_prompt": "the hare is ", "answer_sentence": "the hare is white.", "attribute": "white."}, {"entity": "hare", "relation": "home", "question": "where does the hare live?", "bare_prompt": "the hare lives in the ", "answer_sentence": "the hare lives in the hill.", "attribute": "hill."}, {"entity": "hare", "relation": "food", "question": "what does the hare eat?", "bare_prompt": "the hare eats ", "answer_sentence": "the hare eats clover.", "attribute": "clover."}, {"entity": "wolf", "relation": "colour", "question": "what colour is the wolf?", "bare_prompt": "the wolf is ", "answer_sentence": "the wolf is grey.", "attribute": "grey."}, {"entity": "wolf", "relation": "home", "question": "where does the wolf live?", "bare_prompt": "the wolf lives in the ", "answer_sentence": "the wolf lives in the cave.", "attribute": "cave."}, {"entity": "wolf", "relation": "food", "question": "what does the wolf eat?", "bare_prompt": "the wolf eats ", "answer_sentence": "the wolf eats deer.", "attribute": "deer."}, {"entity": "duck", "relation": "colour", "question": "what colour is the duck?", "bare_prompt": "the duck is ", "answer_sentence": "the duck is green.", "attribute": "green."}, {"entity": "duck", "relation": "home", "question": "where does the duck live?", "bare_prompt": "the duck lives in the ", "answer_sentence": "the duck lives in the pond.", "attribute": "pond."}, {"entity": "duck", "relation": "food", "question": "what does the duck eat?", "bare_prompt": "the duck eats ", "answer_sentence": "the duck eats weeds.", "attribute": "weeds."}, {"entity": "moth", "relation": "colour", "question": "what colour is the moth?", "bare_prompt": "the moth is ", "answer_sentence": "the moth is grey.", "attribute": "grey."}, {"entity": "moth", "relation": "home", "question": "where does the moth live?", "bare_prompt": "the moth lives in the ", "answer_sentence": "the moth lives in the lamp.", "attribute": "lamp."}, {"entity": "moth", "relation": "food", "question": "what does the moth eat?", "bare_prompt": "the moth eats ", "answer_sentence": "the moth eats wool.", "attribute": "wool."}, {"entity": "snail", "relation": "colour", "question": "what colour is the snail?", "bare_prompt": "the snail is ", "answer_sentence": "the snail is brown.", "attribute": "brown."}, {"entity": "snail", "relation": "home", "question": "where does the snail live?", "bare_prompt": "the snail lives in the ", "answer_sentence": "the snail lives in the garden.", "attribute": "garden."}, {"entity": "snail", "relation": "food", "question": "what does the snail eat?", "bare_prompt": "the snail eats ", "answer_sentence": "the snail eats leaves.", "attribute": "leaves."}, {"entity": "crab", "relation": "colour", "question": "what colour is the crab?", "bare_prompt": "the crab is ", "answer_sentence": "the crab is pink.", "attribute": "pink."}, {"entity": "crab", "relation": "home", "question": "where does the crab live?", "bare_prompt": "the crab lives in the ", "answer_sentence": "the crab lives in the reef.", "attribute": "reef."}, {"entity": "crab", "relation": "food", "question": "what does the crab eat?", "bare_prompt": "the crab eats ", "answer_sentence": "the crab eats worms.", "attribute": "worms."}, {"entity": "toad", "relation": "colour", "question": "what colour is the toad?", "bare_prompt": "the toad is ", "answer_sentence": "the toad is tan.", "attribute": "tan."}, {"entity": "toad", "relation": "home", "question": "where does the toad live?", "bare_prompt": "the toad lives in the ", "answer_sentence": "the toad lives in the marsh.", "attribute": "marsh."}, {"entity": "toad", "relation": "food", "question": "what does the toad eat?", "bare_prompt": "the toad eats ", "answer_sentence": "the toad eats grubs.", "attribute": "grubs."}, {"entity": "wren", "relation": "colour", "question": "what colour is the wren?", "bare_prompt": "the wren is ", "answer_sentence": "the wren is brown.", "attribute": "brown."}, {"entity": "wren", "relation": "home", "question": "where does the wren live?", "bare_prompt": "the wren lives in the ", "answer_sentence": "the wren lives in the hedge.", "attribute": "hedge."}, {"entity": "wren", "relation": "food", "question": "what does the wren eat?", "bare_prompt": "the wren eats ", "answer_sentence": "the wren eats grubs.", "attribute": "grubs."}, {"entity": "newt", "relation": "colour", "question": "what colour is the newt?", "bare_prompt": "the newt is ", "answer_sentence": "the newt is black.", "attribute": "black."}, {"entity": "newt", "relation": "home", "question": "where does the newt live?", "bare_prompt": "the newt lives in the ", "answer_sentence": "the newt lives in the pond.", "attribute": "pond."}, {"entity": "newt", "relation": "food", "question": "what does the newt eat?", "bare_prompt": "the newt eats ", "answer_sentence": "the newt eats worms.", "attribute": "worms."}, {"entity": "vole", "relation": "colour", "question": "what colour is the vole?", "bare_prompt": "the vole is ", "answer_sentence": "the vole is grey.", "attribute": "grey."}, {"entity": "vole", "relation": "home", "question": "where does the vole live?", "bare_prompt": "the vole lives in the ", "answer_sentence": "the vole lives in the meadow.", "attribute": "meadow."}, {"entity": "vole", "relation": "food", "question": "what does the vole eat?", "bare_prompt": "the vole eats ", "answer_sentence": "the vole eats roots.", "attribute": "roots."}, {"entity": "pike", "relation": "colour", "question": "what colour is the pike?", "bare_prompt": "the pike is ", "answer_sentence": "the pike is green.", "attribute": "green."}, {"entity": "pike", "relation": "home", "question": "where does the pike live?", "bare_prompt": "the pike lives in the ", "answer_sentence": "the pike lives in the river.", "attribute": "river."}, {"entity": "pike", "relation": "food", "question": "what does the pike eat?", "bare_prompt": "the pike eats ", "answer_sentence": "the pike eats fish.", "attribute": "fish."}, {"entity": "swan", "relation": "colour", "question": "what colour is the swan?", "bare_prompt": "the swan is ", "answer_sentence": "the swan is white.", "attribute": "white."}, {"entity": "swan", "relation": "home", "question": "where does the swan live?", "bare_prompt": "the swan lives in the ", "answer_sentence": "the swan lives in the lake.", "attribute": "lake."}, {"entity": "swan", "relation": "food", "question": "what does the swan eat?", "bare_prompt": "the swan eats ", "answer_sentence": "the swan eats weeds.", "attribute": "weeds."}, {"entity": "gull", "relation": "colour", "question": "what colour is the gull?", "bare_prompt": "the gull is ", "answer_sentence": "the gull is white.", "attribute": "white."}, {"entity": "gull", "relation": "home", "question": "where does the gull live?", "bare_prompt": "the gull lives in the ", "answer_sentence": "the gull lives in the cliff.", "attribute": "cliff."}, {"entity": "gull", "relation": "food", "question": "what does the gull eat?", "bare_prompt": "the gull eats ", "answer_sentence": "the gull eats fish.", "attribute": "fish."}, {"entity": "lark", "relation": "colour", "question": "what colour is the lark?", "bare_prompt": "the lark is ", "answer_sentence": "the lark is tan.", "attribute": "tan."}, {"entity": "lark", "relation": "home", "question": "where does the lark live?", "bare_prompt": "the lark lives in the ", "answer_sentence": "the lark lives in the sky.", "attribute": "sky."}, {"entity": "lark", "relation": "food", "question": "what does the lark eat?", "bare_prompt": "the lark eats ", "answer_sentence": "the lark eats bugs.", "attribute": "bugs."}, {"entity": "hen", "relation": "colour", "question": "what colour is the hen?", "bare_prompt": "the hen is ", "answer_sentence": "the hen is red.", "attribute": "red."}, {"entity": "hen", "relation": "home", "question": "where does the hen live?", "bare_prompt": "the hen lives in the ", "answer_sentence": "the hen lives in the barn.", "attribute": "barn."}, {"entity": "hen", "relation": "food", "question": "what does the hen eat?", "bare_prompt": "the hen eats ", "answer_sentence": "the hen eats corn.", "attribute": "corn."}, {"entity": "ant", "relation": "colour", "question": "what colour is the ant?", "bare_prompt": "the ant is ", "answer_sentence": "the ant is black.", "attribute": "black."}, {"entity": "ant", "relation": "home", "question": "where does the ant live?", "bare_prompt": "the ant lives in the ", "answer_sentence": "the ant lives in the hill.", "attribute": "hill."}, {"entity": "ant", "relation": "food", "question": "what does the ant eat?", "bare_prompt": "the ant eats ", "answer_sentence": "the ant eats crumbs.", "attribute": "crumbs."}, {"entity": "wasp", "relation": "colour", "question": "what colour is the wasp?", "bare_prompt": "the wasp is ", "answer_sentence": "the wasp is gold.", "attribute": "gold."}, {"entity": "wasp", "relation": "home", "question": "where does the wasp live?", "bare_prompt": "the wasp lives in the ", "answer_sentence": "the wasp lives in the nest.", "attribute": "nest."}, {"entity": "wasp", "relation": "food", "question": "what does the wasp eat?", "bare_prompt": "the wasp eats ", "answer_sentence": "the wasp eats jam.", "attribute": "jam."}, {"entity": "bat", "relation": "colour", "question": "what colour is the bat?", "bare_prompt": "the bat is ", "answer_sentence": "the bat is black.", "attribute": "black."}, {"entity": "bat", "relation": "home", "question": "where does the bat live?", "bare_prompt": "the bat lives in the ", "answer_sentence": "the bat lives in the cave.", "attribute": "cave."}, {"entity": "bat", "relation": "food", "question": "what does the bat eat?", "bare_prompt": "the bat eats ", "answer_sentence": "the bat eats figs.", "attribute": "figs."}, {"entity": "koi", "relation": "colour", "question": "what colour is the koi?", "bare_prompt": "the koi is ", "answer_sentence": "the koi is gold.", "attribute": "gold."}, {"entity": "koi", "relation": "home", "question": "where does the koi live?", "bare_prompt": "the koi lives in the ", "answer_sentence": "the koi lives in the pond.", "attribute": "pond."}, {"entity": "koi", "relation": "food", "question": "what does the koi eat?", "bare_prompt": "the koi eats ", "answer_sentence": "the koi eats moss.", "attribute": "moss."}, {"entity": "jay", "relation": "colour", "question": "what colour is the jay?", "bare_prompt": "the jay is ", "answer_sentence": "the jay is blue.", "attribute": "blue."}, {"entity": "jay", "relation": "home", "question": "where does the jay live?", "bare_prompt": "the jay lives in the ", "answer_sentence": "the jay lives in the tree.", "attribute": "tree."}, {"entity": "jay", "relation": "food", "question": "what does the jay eat?", "bare_prompt": "the jay eats ", "answer_sentence": "the jay eats nuts.", "attribute": "nuts."}, {"entity": "ram", "relation": "colour", "question": "what colour is the ram?", "bare_prompt": "the ram is ", "answer_sentence": "the ram is white.", "attribute": "white."}, {"entity": "ram", "relation": "home", "question": "where does the ram live?", "bare_prompt": "the ram lives in the ", "answer_sentence": "the ram lives in the hill.", "attribute": "hill."}, {"entity": "ram", "relation": "food", "question": "what does the ram eat?", "bare_prompt": "the ram eats ", "answer_sentence": "the ram eats grass.", "attribute": "grass."}, {"entity": "eel", "relation": "colour", "question": "what colour is the eel?", "bare_prompt": "the eel is ", "answer_sentence": "the eel is black.", "attribute": "black."}, {"entity": "eel", "relation": "home", "question": "where does the eel live?", "bare_prompt": "the eel lives in the ", "answer_sentence": "the eel lives in the river.", "attribute": "river."}, {"entity": "eel", "relation": "food", "question": "what does the eel eat?", "bare_prompt": "the eel eats ", "answer_sentence": "the eel eats worms.", "attribute": "worms."}, {"entity": "seal", "relation": "colour", "question": "what colour is the seal?", "bare_prompt": "the seal is ", "answer_sentence": "the seal is grey.", "attribute": "grey."}, {"entity": "seal", "relation": "home", "question": "where does the seal live?", "bare_prompt": "the seal lives in the ", "answer_sentence": "the seal lives in the sea.", "attribute": "sea."}, {"entity": "seal", "relation": "food", "question": "what does the seal eat?", "bare_prompt": "the seal eats ", "answer_sentence": "the seal eats fish.", "attribute": "fish."}], "demoA16": [{"q": "what colour is the wolf?", "a": "the wolf is grey."}, {"q": "what colour is the vole?", "a": "the vole is grey."}, {"q": "what colour is the toad?", "a": "the toad is tan."}, {"q": "what colour is the owl?", "a": "the owl is grey."}, {"q": "what does the hen eat?", "a": "the hen eats corn."}, {"q": "what does the pike eat?", "a": "the pike eats fish."}, {"q": "what does the ant eat?", "a": "the ant eats crumbs."}, {"q": "what colour is the jay?", "a": "the jay is blue."}, {"q": "what colour is the hen?", "a": "the hen is red."}, {"q": "what colour is the frog?", "a": "the frog is green."}, {"q": "what does the eel eat?", "a": "the eel eats worms."}, {"q": "what colour is the hare?", "a": "the hare is white."}, {"q": "where does the wren live?", "a": "the wren lives in the hedge."}, {"q": "where does the fox live?", "a": "the fox lives in the forest."}, {"q": "what does the whale eat?", "a": "the whale eats plankton."}, {"q": "where does the swan live?", "a": "the swan lives in the lake."}], "demoA4": [{"q": "what colour is the wolf?", "a": "the wolf is grey."}, {"q": "what colour is the newt?", "a": "the newt is black."}, {"q": "what does the bat eat?", "a": "the bat eats figs."}, {"q": "what does the swan eat?", "a": "the swan eats weeds."}], "demoA64": [{"q": "what does the eel eat?", "a": "the eel eats worms."}, {"q": "what does the moth eat?", "a": "the moth eats wool."}, {"q": "what colour is the seal?", "a": "the seal is grey."}, {"q": "what does the koi eat?", "a": "the koi eats moss."}, {"q": "what does the pike eat?", "a": "the pike eats fish."}, {"q": "what colour is the wren?", "a": "the wren is brown."}, {"q": "where does the jay live?", "a": "the jay lives in the tree."}, {"q": "what colour is the mole?", "a": "the mole is brown."}, {"q": "where does the hare live?", "a": "the hare lives in the hill."}, {"q": "what colour is the lark?", "a": "the lark is tan."}, {"q": "what colour is the duck?", "a": "the duck is green."}, {"q": "what does the ant eat?", "a": "the ant eats crumbs."}, {"q": "what does the bat eat?", "a": "the bat eats figs."}, {"q": "what colour is the hen?", "a": "the hen is red."}, {"q": "where does the wolf live?", "a": "the wolf lives in the cave."}, {"q": "what colour is the ram?", "a": "the ram is white."}, {"q": "what does the hen eat?", "a": "the hen eats corn."}, {"q": "what colour is the wolf?", "a": "the wolf is grey."}, {"q": "what does the fox eat?", "a": "the fox eats mice."}, {"q": "what colour is the ant?", "a": "the ant is black."}, {"q": "what does the crab eat?", "a": "the crab eats worms."}, {"q": "what colour is the wasp?", "a": "the wasp is gold."}, {"q": "what does the lark eat?", "a": "the lark eats bugs."}, {"q": "where does the wren live?", "a": "the wren lives in the hedge."}, {"q": "where does the fox live?", "a": "the fox lives in the forest."}, {"q": "where does the seal live?", "a": "the seal lives in the sea."}, {"q": "where does the ant live?", "a": "the ant lives in the hill."}, {"q": "where does the swan live?", "a": "the swan lives in the lake."}, {"q": "what colour is the pike?", "a": "the pike is green."}, {"q": "what does the wasp eat?", "a": "the wasp eats jam."}, {"q": "what does the whale eat?", "a": "the whale eats plankton."}, {"q": "what does the bee eat?", "a": "the bee eats nectar."}, {"q": "where does the whale live?", "a": "the whale lives in the sea."}, {"q": "what does the crow eat?", "a": "the crow eats seeds."}, {"q": "what colour is the fox?", "a": "the fox is red."}, {"q": "what does the duck eat?", "a": "the duck eats weeds."}, {"q": "where does the eel live?", "a": "the eel lives in the river."}, {"q": "where does the crow live?", "a": "the crow lives in the tree."}, {"q": "what colour is the moth?", "a": "the moth is grey."}, {"q": "what colour is the eel?", "a": "the eel is black."}, {"q": "what colour is the toad?", "a": "the toad is tan."}, {"q": "what colour is the gull?", "a": "the gull is white."}, {"q": "what does the wren eat?", "a": "the wren eats grubs."}, {"q": "where does the mole live?", "a": "the mole lives in the burrow."}, {"q": "where does the toad live?", "a": "the toad lives in the marsh."}, {"q": "where does the snail live?", "a": "the snail lives in the garden."}, {"q": "where does the newt live?", "a": "the newt lives in the pond."}, {"q": "what does the owl eat?", "a": "the owl eats mice."}, {"q": "what does the snail eat?", "a": "the snail eats leaves."}, {"q": "what does the jay eat?", "a": "the jay eats nuts."}, {"q": "what colour is the crab?", "a": "the crab is pink."}, {"q": "what does the frog eat?", "a": "the frog eats flies."}, {"q": "where does the bat live?", "a": "the bat lives in the cave."}, {"q": "where does the moth live?", "a": "the moth lives in the lamp."}, {"q": "where does the pike live?", "a": "the pike lives in the river."}, {"q": "where does the vole live?", "a": "the vole lives in the meadow."}, {"q": "what does the hare eat?", "a": "the hare eats clover."}, {"q": "what does the newt eat?", "a": "the newt eats worms."}, {"q": "what colour is the vole?", "a": "the vole is grey."}, {"q": "where does the gull live?", "a": "the gull lives in the cliff."}, {"q": "where does the wasp live?", "a": "the wasp lives in the nest."}, {"q": "what colour is the snail?", "a": "the snail is brown."}, {"q": "what colour is the frog?", "a": "the frog is green."}, {"q": "where does the ram live?", "a": "the ram lives in the hill."}], "pairsB16": [{"q": "what does the bee eat?", "a": "the bee eats nectar."}, {"q": "what colour is the ram?", "a": "the ram is white."}, {"q": "what colour is the wren?", "a": "the wren is brown."}, {"q": "what does the mole eat?", "a": "the mole eats worms."}, {"q": "where does the frog live?", "a": "the frog lives in the pond."}, {"q": "where does the wasp live?", "a": "the wasp lives in the nest."}, {"q": "where does the whale live?", "a": "the whale lives in the sea."}, {"q": "where does the lark live?", "a": "the lark lives in the sky."}, {"q": "what does the duck eat?", "a": "the duck eats weeds."}, {"q": "what does the ant eat?", "a": "the ant eats crumbs."}, {"q": "what does the hen eat?", "a": "the hen eats corn."}, {"q": "what colour is the pike?", "a": "the pike is green."}, {"q": "what colour is the gull?", "a": "the gull is white."}, {"q": "what colour is the vole?", "a": "the vole is grey."}, {"q": "what colour is the fox?", "a": "the fox is red."}, {"q": "what colour is the moth?", "a": "the moth is grey."}], "fakeEntities": ["yeti", "wisp", "dodo", "puma", "lynx", "imp", "elf", "orc"], "fakeProbes": [{"fake": "yeti", "relation": "colour", "question": "what colour is the yeti?"}, {"fake": "yeti", "relation": "home", "question": "where does the yeti live?"}, {"fake": "yeti", "relation": "food", "question": "what does the yeti eat?"}, {"fake": "wisp", "relation": "colour", "question": "what colour is the wisp?"}, {"fake": "wisp", "relation": "home", "question": "where does the wisp live?"}, {"fake": "wisp", "relation": "food", "question": "what does the wisp eat?"}, {"fake": "dodo", "relation": "colour", "question": "what colour is the dodo?"}, {"fake": "dodo", "relation": "home", "question": "where does the dodo live?"}, {"fake": "dodo", "relation": "food", "question": "what does the dodo eat?"}, {"fake": "puma", "relation": "colour", "question": "what colour is the puma?"}, {"fake": "puma", "relation": "home", "question": "where does the puma live?"}, {"fake": "puma", "relation": "food", "question": "what does the puma eat?"}, {"fake": "lynx", "relation": "colour", "question": "what colour is the lynx?"}, {"fake": "lynx", "relation": "home", "question": "where does the lynx live?"}, {"fake": "lynx", "relation": "food", "question": "what does the lynx eat?"}, {"fake": "imp", "relation": "colour", "question": "what colour is the imp?"}, {"fake": "imp", "relation": "home", "question": "where does the imp live?"}, {"fake": "imp", "relation": "food", "question": "what does the imp eat?"}, {"fake": "elf", "relation": "colour", "question": "what colour is the elf?"}, {"fake": "elf", "relation": "home", "question": "where does the elf live?"}, {"fake": "elf", "relation": "food", "question": "what does the elf eat?"}, {"fake": "orc", "relation": "colour", "question": "what colour is the orc?"}, {"fake": "orc", "relation": "home", "question": "where does the orc live?"}, {"fake": "orc", "relation": "food", "question": "what does the orc eat?"}], "pinnedProbes": [{"fake": "puma", "relation": "food", "question": "what does the puma eat?"}, {"fake": "elf", "relation": "home", "question": "where does the elf live?"}, {"fake": "wisp", "relation": "food", "question": "what does the wisp eat?"}], "answerFor": {"what colour is the fox?": "the fox is red.", "where does the fox live?": "the fox lives in the forest.", "what does the fox eat?": "the fox eats mice.", "what colour is the owl?": "the owl is grey.", "where does the owl live?": "the owl lives in the tree.", "what does the owl eat?": "the owl eats mice.", "what colour is the frog?": "the frog is green.", "where does the frog live?": "the frog lives in the pond.", "what does the frog eat?": "the frog eats flies.", "what colour is the mole?": "the mole is brown.", "where does the mole live?": "the mole lives in the burrow.", "what does the mole eat?": "the mole eats worms.", "what colour is the whale?": "the whale is blue.", "where does the whale live?": "the whale lives in the sea.", "what does the whale eat?": "the whale eats plankton.", "what colour is the bee?": "the bee is gold.", "where does the bee live?": "the bee lives in the meadow.", "what does the bee eat?": "the bee eats nectar.", "what colour is the crow?": "the crow is black.", "where does the crow live?": "the crow lives in the tree.", "what does the crow eat?": "the crow eats seeds.", "what colour is the hare?": "the hare is white.", "where does the hare live?": "the hare lives in the hill.", "what does the hare eat?": "the hare eats clover.", "what colour is the wolf?": "the wolf is grey.", "where does the wolf live?": "the wolf lives in the cave.", "what does the wolf eat?": "the wolf eats deer.", "what colour is the duck?": "the duck is green.", "where does the duck live?": "the duck lives in the pond.", "what does the duck eat?": "the duck eats weeds.", "what colour is the moth?": "the moth is grey.", "where does the moth live?": "the moth lives in the lamp.", "what does the moth eat?": "the moth eats wool.", "what colour is the snail?": "the snail is brown.", "where does the snail live?": "the snail lives in the garden.", "what does the snail eat?": "the snail eats leaves.", "what colour is the crab?": "the crab is pink.", "where does the crab live?": "the crab lives in the reef.", "what does the crab eat?": "the crab eats worms.", "what colour is the toad?": "the toad is tan.", "where does the toad live?": "the toad lives in the marsh.", "what does the toad eat?": "the toad eats grubs.", "what colour is the wren?": "the wren is brown.", "where does the wren live?": "the wren lives in the hedge.", "what does the wren eat?": "the wren eats grubs.", "what colour is the newt?": "the newt is black.", "where does the newt live?": "the newt lives in the pond.", "what does the newt eat?": "the newt eats worms.", "what colour is the vole?": "the vole is grey.", "where does the vole live?": "the vole lives in the meadow.", "what does the vole eat?": "the vole eats roots.", "what colour is the pike?": "the pike is green.", "where does the pike live?": "the pike lives in the river.", "what does the pike eat?": "the pike eats fish.", "what colour is the swan?": "the swan is white.", "where does the swan live?": "the swan lives in the lake.", "what does the swan eat?": "the swan eats weeds.", "what colour is the gull?": "the gull is white.", "where does the gull live?": "the gull lives in the cliff.", "what does the gull eat?": "the gull eats fish.", "what colour is the lark?": "the lark is tan.", "where does the lark live?": "the lark lives in the sky.", "what does the lark eat?": "the lark eats bugs.", "what colour is the hen?": "the hen is red.", "where does the hen live?": "the hen lives in the barn.", "what does the hen eat?": "the hen eats corn.", "what colour is the ant?": "the ant is black.", "where does the ant live?": "the 